{
  "version": "1.0",
  "truncation": null,
  "padding": null,
  "added_tokens": [
    {
      "id": 0,
      "content": "[USER_PAD]",
      "single_word": false,
      "lstrip": false,
      "rstrip": false,
      "normalized": false,
      "special": true
    },
    {
      "id": 1,
      "content": "[USER_CLS]",
      "single_word": false,
      "lstrip": false,
      "rstrip": false,
      "normalized": false,
      "special": true
    },
    {
      "id": 2,
      "content": "[AGE_S]",
      "single_word": false,
      "lstrip": false,
      "rstrip": false,
      "normalized": false,
      "special": true
    },
    {
      "id": 3,
      "content": "[AGE_E]",
      "single_word": false,
      "lstrip": false,
      "rstrip": false,
      "normalized": false,
      "special": true
    },
    {
      "id": 4,
      "content": "[CITY_S]",
      "single_word": false,
      "lstrip": false,
      "rstrip": false,
      "normalized": false,
      "special": true
    },
    {
      "id": 5,
      "content": "[CITY_E]",
      "single_word": false,
      "lstrip": false,
      "rstrip": false,
      "normalized": false,
      "special": true
    },
    {
      "id": 6,
      "content": "[STATE_S]",
      "single_word": false,
      "lstrip": false,
      "rstrip": false,
      "normalized": false,
      "special": true
    },
    {
      "id": 7,
      "content": "[STATE_E]",
      "single_word": false,
      "lstrip": false,
      "rstrip": false,
      "normalized": false,
      "special": true
    },
    {
      "id": 8,
      "content": "[COUNTRY_S]",
      "single_word": false,
      "lstrip": false,
      "rstrip": false,
      "normalized": false,
      "special": true
    },
    {
      "id": 9,
      "content": "[COUNTRY_E]",
      "single_word": false,
      "lstrip": false,
      "rstrip": false,
      "normalized": false,
      "special": true
    },
    {
      "id": 10,
      "content": "20_29",
      "single_word": false,
      "lstrip": false,
      "rstrip": false,
      "normalized": false,
      "special": true
    },
    {
      "id": 11,
      "content": "60_100",
      "single_word": false,
      "lstrip": false,
      "rstrip": false,
      "normalized": false,
      "special": true
    },
    {
      "id": 12,
      "content": "30_39",
      "single_word": false,
      "lstrip": false,
      "rstrip": false,
      "normalized": false,
      "special": true
    },
    {
      "id": 13,
      "content": "40_59",
      "single_word": false,
      "lstrip": false,
      "rstrip": false,
      "normalized": false,
      "special": true
    },
    {
      "id": 14,
      "content": "15_19",
      "single_word": false,
      "lstrip": false,
      "rstrip": false,
      "normalized": false,
      "special": true
    },
    {
      "id": 15,
      "content": "10_14",
      "single_word": false,
      "lstrip": false,
      "rstrip": false,
      "normalized": false,
      "special": true
    },
    {
      "id": 16,
      "content": "Age_0",
      "single_word": false,
      "lstrip": false,
      "rstrip": false,
      "normalized": false,
      "special": true
    },
    {
      "id": 17,
      "content": "1_4",
      "single_word": false,
      "lstrip": false,
      "rstrip": false,
      "normalized": false,
      "special": true
    },
    {
      "id": 18,
      "content": "5_9",
      "single_word": false,
      "lstrip": false,
      "rstrip": false,
      "normalized": false,
      "special": true
    },
    {
      "id": 19,
      "content": "City_1",
      "single_word": false,
      "lstrip": false,
      "rstrip": false,
      "normalized": false,
      "special": true
    },
    {
      "id": 20,
      "content": "City_2",
      "single_word": false,
      "lstrip": false,
      "rstrip": false,
      "normalized": false,
      "special": true
    },
    {
      "id": 21,
      "content": "City_3",
      "single_word": false,
      "lstrip": false,
      "rstrip": false,
      "normalized": false,
      "special": true
    },
    {
      "id": 22,
      "content": "City_4",
      "single_word": false,
      "lstrip": false,
      "rstrip": false,
      "normalized": false,
      "special": true
    },
    {
      "id": 23,
      "content": "City_5",
      "single_word": false,
      "lstrip": false,
      "rstrip": false,
      "normalized": false,
      "special": true
    },
    {
      "id": 24,
      "content": "City_6",
      "single_word": false,
      "lstrip": false,
      "rstrip": false,
      "normalized": false,
      "special": true
    },
    {
      "id": 25,
      "content": "City_7",
      "single_word": false,
      "lstrip": false,
      "rstrip": false,
      "normalized": false,
      "special": true
    },
    {
      "id": 26,
      "content": "City_8",
      "single_word": false,
      "lstrip": false,
      "rstrip": false,
      "normalized": false,
      "special": true
    },
    {
      "id": 27,
      "content": "City_9",
      "single_word": false,
      "lstrip": false,
      "rstrip": false,
      "normalized": false,
      "special": true
    },
    {
      "id": 28,
      "content": "City_10",
      "single_word": false,
      "lstrip": false,
      "rstrip": false,
      "normalized": false,
      "special": true
    },
    {
      "id": 29,
      "content": "City_11",
      "single_word": false,
      "lstrip": false,
      "rstrip": false,
      "normalized": false,
      "special": true
    },
    {
      "id": 30,
      "content": "City_12",
      "single_word": false,
      "lstrip": false,
      "rstrip": false,
      "normalized": false,
      "special": true
    },
    {
      "id": 31,
      "content": "City_13",
      "single_word": false,
      "lstrip": false,
      "rstrip": false,
      "normalized": false,
      "special": true
    },
    {
      "id": 32,
      "content": "City_14",
      "single_word": false,
      "lstrip": false,
      "rstrip": false,
      "normalized": false,
      "special": true
    },
    {
      "id": 33,
      "content": "City_15",
      "single_word": false,
      "lstrip": false,
      "rstrip": false,
      "normalized": false,
      "special": true
    },
    {
      "id": 34,
      "content": "City_16",
      "single_word": false,
      "lstrip": false,
      "rstrip": false,
      "normalized": false,
      "special": true
    },
    {
      "id": 35,
      "content": "City_17",
      "single_word": false,
      "lstrip": false,
      "rstrip": false,
      "normalized": false,
      "special": true
    },
    {
      "id": 36,
      "content": "City_18",
      "single_word": false,
      "lstrip": false,
      "rstrip": false,
      "normalized": false,
      "special": true
    },
    {
      "id": 37,
      "content": "City_19",
      "single_word": false,
      "lstrip": false,
      "rstrip": false,
      "normalized": false,
      "special": true
    },
    {
      "id": 38,
      "content": "City_20",
      "single_word": false,
      "lstrip": false,
      "rstrip": false,
      "normalized": false,
      "special": true
    },
    {
      "id": 39,
      "content": "City_21",
      "single_word": false,
      "lstrip": false,
      "rstrip": false,
      "normalized": false,
      "special": true
    },
    {
      "id": 40,
      "content": "City_22",
      "single_word": false,
      "lstrip": false,
      "rstrip": false,
      "normalized": false,
      "special": true
    },
    {
      "id": 41,
      "content": "City_23",
      "single_word": false,
      "lstrip": false,
      "rstrip": false,
      "normalized": false,
      "special": true
    },
    {
      "id": 42,
      "content": "City_24",
      "single_word": false,
      "lstrip": false,
      "rstrip": false,
      "normalized": false,
      "special": true
    },
    {
      "id": 43,
      "content": "City_25",
      "single_word": false,
      "lstrip": false,
      "rstrip": false,
      "normalized": false,
      "special": true
    },
    {
      "id": 44,
      "content": "City_26",
      "single_word": false,
      "lstrip": false,
      "rstrip": false,
      "normalized": false,
      "special": true
    },
    {
      "id": 45,
      "content": "City_27",
      "single_word": false,
      "lstrip": false,
      "rstrip": false,
      "normalized": false,
      "special": true
    },
    {
      "id": 46,
      "content": "City_28",
      "single_word": false,
      "lstrip": false,
      "rstrip": false,
      "normalized": false,
      "special": true
    },
    {
      "id": 47,
      "content": "City_29",
      "single_word": false,
      "lstrip": false,
      "rstrip": false,
      "normalized": false,
      "special": true
    },
    {
      "id": 48,
      "content": "City_30",
      "single_word": false,
      "lstrip": false,
      "rstrip": false,
      "normalized": false,
      "special": true
    },
    {
      "id": 49,
      "content": "City_31",
      "single_word": false,
      "lstrip": false,
      "rstrip": false,
      "normalized": false,
      "special": true
    },
    {
      "id": 50,
      "content": "City_32",
      "single_word": false,
      "lstrip": false,
      "rstrip": false,
      "normalized": false,
      "special": true
    },
    {
      "id": 51,
      "content": "City_33",
      "single_word": false,
      "lstrip": false,
      "rstrip": false,
      "normalized": false,
      "special": true
    },
    {
      "id": 52,
      "content": "City_34",
      "single_word": false,
      "lstrip": false,
      "rstrip": false,
      "normalized": false,
      "special": true
    },
    {
      "id": 53,
      "content": "City_35",
      "single_word": false,
      "lstrip": false,
      "rstrip": false,
      "normalized": false,
      "special": true
    },
    {
      "id": 54,
      "content": "City_36",
      "single_word": false,
      "lstrip": false,
      "rstrip": false,
      "normalized": false,
      "special": true
    },
    {
      "id": 55,
      "content": "City_37",
      "single_word": false,
      "lstrip": false,
      "rstrip": false,
      "normalized": false,
      "special": true
    },
    {
      "id": 56,
      "content": "City_38",
      "single_word": false,
      "lstrip": false,
      "rstrip": false,
      "normalized": false,
      "special": true
    },
    {
      "id": 57,
      "content": "City_39",
      "single_word": false,
      "lstrip": false,
      "rstrip": false,
      "normalized": false,
      "special": true
    },
    {
      "id": 58,
      "content": "City_40",
      "single_word": false,
      "lstrip": false,
      "rstrip": false,
      "normalized": false,
      "special": true
    },
    {
      "id": 59,
      "content": "City_41",
      "single_word": false,
      "lstrip": false,
      "rstrip": false,
      "normalized": false,
      "special": true
    },
    {
      "id": 60,
      "content": "City_42",
      "single_word": false,
      "lstrip": false,
      "rstrip": false,
      "normalized": false,
      "special": true
    },
    {
      "id": 61,
      "content": "City_43",
      "single_word": false,
      "lstrip": false,
      "rstrip": false,
      "normalized": false,
      "special": true
    },
    {
      "id": 62,
      "content": "City_44",
      "single_word": false,
      "lstrip": false,
      "rstrip": false,
      "normalized": false,
      "special": true
    },
    {
      "id": 63,
      "content": "City_45",
      "single_word": false,
      "lstrip": false,
      "rstrip": false,
      "normalized": false,
      "special": true
    },
    {
      "id": 64,
      "content": "City_46",
      "single_word": false,
      "lstrip": false,
      "rstrip": false,
      "normalized": false,
      "special": true
    },
    {
      "id": 65,
      "content": "City_47",
      "single_word": false,
      "lstrip": false,
      "rstrip": false,
      "normalized": false,
      "special": true
    },
    {
      "id": 66,
      "content": "City_48",
      "single_word": false,
      "lstrip": false,
      "rstrip": false,
      "normalized": false,
      "special": true
    },
    {
      "id": 67,
      "content": "City_49",
      "single_word": false,
      "lstrip": false,
      "rstrip": false,
      "normalized": false,
      "special": true
    },
    {
      "id": 68,
      "content": "City_50",
      "single_word": false,
      "lstrip": false,
      "rstrip": false,
      "normalized": false,
      "special": true
    },
    {
      "id": 69,
      "content": "City_51",
      "single_word": false,
      "lstrip": false,
      "rstrip": false,
      "normalized": false,
      "special": true
    },
    {
      "id": 70,
      "content": "City_52",
      "single_word": false,
      "lstrip": false,
      "rstrip": false,
      "normalized": false,
      "special": true
    },
    {
      "id": 71,
      "content": "City_53",
      "single_word": false,
      "lstrip": false,
      "rstrip": false,
      "normalized": false,
      "special": true
    },
    {
      "id": 72,
      "content": "City_54",
      "single_word": false,
      "lstrip": false,
      "rstrip": false,
      "normalized": false,
      "special": true
    },
    {
      "id": 73,
      "content": "City_55",
      "single_word": false,
      "lstrip": false,
      "rstrip": false,
      "normalized": false,
      "special": true
    },
    {
      "id": 74,
      "content": "City_56",
      "single_word": false,
      "lstrip": false,
      "rstrip": false,
      "normalized": false,
      "special": true
    },
    {
      "id": 75,
      "content": "City_57",
      "single_word": false,
      "lstrip": false,
      "rstrip": false,
      "normalized": false,
      "special": true
    },
    {
      "id": 76,
      "content": "City_58",
      "single_word": false,
      "lstrip": false,
      "rstrip": false,
      "normalized": false,
      "special": true
    },
    {
      "id": 77,
      "content": "City_59",
      "single_word": false,
      "lstrip": false,
      "rstrip": false,
      "normalized": false,
      "special": true
    },
    {
      "id": 78,
      "content": "City_60",
      "single_word": false,
      "lstrip": false,
      "rstrip": false,
      "normalized": false,
      "special": true
    },
    {
      "id": 79,
      "content": "City_61",
      "single_word": false,
      "lstrip": false,
      "rstrip": false,
      "normalized": false,
      "special": true
    },
    {
      "id": 80,
      "content": "City_62",
      "single_word": false,
      "lstrip": false,
      "rstrip": false,
      "normalized": false,
      "special": true
    },
    {
      "id": 81,
      "content": "City_63",
      "single_word": false,
      "lstrip": false,
      "rstrip": false,
      "normalized": false,
      "special": true
    },
    {
      "id": 82,
      "content": "City_64",
      "single_word": false,
      "lstrip": false,
      "rstrip": false,
      "normalized": false,
      "special": true
    },
    {
      "id": 83,
      "content": "City_65",
      "single_word": false,
      "lstrip": false,
      "rstrip": false,
      "normalized": false,
      "special": true
    },
    {
      "id": 84,
      "content": "City_66",
      "single_word": false,
      "lstrip": false,
      "rstrip": false,
      "normalized": false,
      "special": true
    },
    {
      "id": 85,
      "content": "City_67",
      "single_word": false,
      "lstrip": false,
      "rstrip": false,
      "normalized": false,
      "special": true
    },
    {
      "id": 86,
      "content": "City_68",
      "single_word": false,
      "lstrip": false,
      "rstrip": false,
      "normalized": false,
      "special": true
    },
    {
      "id": 87,
      "content": "City_69",
      "single_word": false,
      "lstrip": false,
      "rstrip": false,
      "normalized": false,
      "special": true
    },
    {
      "id": 88,
      "content": "City_70",
      "single_word": false,
      "lstrip": false,
      "rstrip": false,
      "normalized": false,
      "special": true
    },
    {
      "id": 89,
      "content": "City_71",
      "single_word": false,
      "lstrip": false,
      "rstrip": false,
      "normalized": false,
      "special": true
    },
    {
      "id": 90,
      "content": "City_72",
      "single_word": false,
      "lstrip": false,
      "rstrip": false,
      "normalized": false,
      "special": true
    },
    {
      "id": 91,
      "content": "City_73",
      "single_word": false,
      "lstrip": false,
      "rstrip": false,
      "normalized": false,
      "special": true
    },
    {
      "id": 92,
      "content": "City_74",
      "single_word": false,
      "lstrip": false,
      "rstrip": false,
      "normalized": false,
      "special": true
    },
    {
      "id": 93,
      "content": "City_75",
      "single_word": false,
      "lstrip": false,
      "rstrip": false,
      "normalized": false,
      "special": true
    },
    {
      "id": 94,
      "content": "City_76",
      "single_word": false,
      "lstrip": false,
      "rstrip": false,
      "normalized": false,
      "special": true
    },
    {
      "id": 95,
      "content": "City_77",
      "single_word": false,
      "lstrip": false,
      "rstrip": false,
      "normalized": false,
      "special": true
    },
    {
      "id": 96,
      "content": "City_78",
      "single_word": false,
      "lstrip": false,
      "rstrip": false,
      "normalized": false,
      "special": true
    },
    {
      "id": 97,
      "content": "City_79",
      "single_word": false,
      "lstrip": false,
      "rstrip": false,
      "normalized": false,
      "special": true
    },
    {
      "id": 98,
      "content": "City_80",
      "single_word": false,
      "lstrip": false,
      "rstrip": false,
      "normalized": false,
      "special": true
    },
    {
      "id": 99,
      "content": "City_81",
      "single_word": false,
      "lstrip": false,
      "rstrip": false,
      "normalized": false,
      "special": true
    },
    {
      "id": 100,
      "content": "City_82",
      "single_word": false,
      "lstrip": false,
      "rstrip": false,
      "normalized": false,
      "special": true
    },
    {
      "id": 101,
      "content": "City_83",
      "single_word": false,
      "lstrip": false,
      "rstrip": false,
      "normalized": false,
      "special": true
    },
    {
      "id": 102,
      "content": "City_84",
      "single_word": false,
      "lstrip": false,
      "rstrip": false,
      "normalized": false,
      "special": true
    },
    {
      "id": 103,
      "content": "City_85",
      "single_word": false,
      "lstrip": false,
      "rstrip": false,
      "normalized": false,
      "special": true
    },
    {
      "id": 104,
      "content": "City_86",
      "single_word": false,
      "lstrip": false,
      "rstrip": false,
      "normalized": false,
      "special": true
    },
    {
      "id": 105,
      "content": "City_87",
      "single_word": false,
      "lstrip": false,
      "rstrip": false,
      "normalized": false,
      "special": true
    },
    {
      "id": 106,
      "content": "City_88",
      "single_word": false,
      "lstrip": false,
      "rstrip": false,
      "normalized": false,
      "special": true
    },
    {
      "id": 107,
      "content": "City_89",
      "single_word": false,
      "lstrip": false,
      "rstrip": false,
      "normalized": false,
      "special": true
    },
    {
      "id": 108,
      "content": "City_90",
      "single_word": false,
      "lstrip": false,
      "rstrip": false,
      "normalized": false,
      "special": true
    },
    {
      "id": 109,
      "content": "City_91",
      "single_word": false,
      "lstrip": false,
      "rstrip": false,
      "normalized": false,
      "special": true
    },
    {
      "id": 110,
      "content": "City_92",
      "single_word": false,
      "lstrip": false,
      "rstrip": false,
      "normalized": false,
      "special": true
    },
    {
      "id": 111,
      "content": "City_93",
      "single_word": false,
      "lstrip": false,
      "rstrip": false,
      "normalized": false,
      "special": true
    },
    {
      "id": 112,
      "content": "City_94",
      "single_word": false,
      "lstrip": false,
      "rstrip": false,
      "normalized": false,
      "special": true
    },
    {
      "id": 113,
      "content": "City_95",
      "single_word": false,
      "lstrip": false,
      "rstrip": false,
      "normalized": false,
      "special": true
    },
    {
      "id": 114,
      "content": "City_96",
      "single_word": false,
      "lstrip": false,
      "rstrip": false,
      "normalized": false,
      "special": true
    },
    {
      "id": 115,
      "content": "City_97",
      "single_word": false,
      "lstrip": false,
      "rstrip": false,
      "normalized": false,
      "special": true
    },
    {
      "id": 116,
      "content": "City_98",
      "single_word": false,
      "lstrip": false,
      "rstrip": false,
      "normalized": false,
      "special": true
    },
    {
      "id": 117,
      "content": "City_99",
      "single_word": false,
      "lstrip": false,
      "rstrip": false,
      "normalized": false,
      "special": true
    },
    {
      "id": 118,
      "content": "City_100",
      "single_word": false,
      "lstrip": false,
      "rstrip": false,
      "normalized": false,
      "special": true
    },
    {
      "id": 119,
      "content": "City_101",
      "single_word": false,
      "lstrip": false,
      "rstrip": false,
      "normalized": false,
      "special": true
    },
    {
      "id": 120,
      "content": "City_102",
      "single_word": false,
      "lstrip": false,
      "rstrip": false,
      "normalized": false,
      "special": true
    },
    {
      "id": 121,
      "content": "City_103",
      "single_word": false,
      "lstrip": false,
      "rstrip": false,
      "normalized": false,
      "special": true
    },
    {
      "id": 122,
      "content": "City_104",
      "single_word": false,
      "lstrip": false,
      "rstrip": false,
      "normalized": false,
      "special": true
    },
    {
      "id": 123,
      "content": "City_105",
      "single_word": false,
      "lstrip": false,
      "rstrip": false,
      "normalized": false,
      "special": true
    },
    {
      "id": 124,
      "content": "City_106",
      "single_word": false,
      "lstrip": false,
      "rstrip": false,
      "normalized": false,
      "special": true
    },
    {
      "id": 125,
      "content": "City_107",
      "single_word": false,
      "lstrip": false,
      "rstrip": false,
      "normalized": false,
      "special": true
    },
    {
      "id": 126,
      "content": "City_108",
      "single_word": false,
      "lstrip": false,
      "rstrip": false,
      "normalized": false,
      "special": true
    },
    {
      "id": 127,
      "content": "City_109",
      "single_word": false,
      "lstrip": false,
      "rstrip": false,
      "normalized": false,
      "special": true
    },
    {
      "id": 128,
      "content": "City_110",
      "single_word": false,
      "lstrip": false,
      "rstrip": false,
      "normalized": false,
      "special": true
    },
    {
      "id": 129,
      "content": "City_111",
      "single_word": false,
      "lstrip": false,
      "rstrip": false,
      "normalized": false,
      "special": true
    },
    {
      "id": 130,
      "content": "City_112",
      "single_word": false,
      "lstrip": false,
      "rstrip": false,
      "normalized": false,
      "special": true
    },
    {
      "id": 131,
      "content": "City_113",
      "single_word": false,
      "lstrip": false,
      "rstrip": false,
      "normalized": false,
      "special": true
    },
    {
      "id": 132,
      "content": "City_114",
      "single_word": false,
      "lstrip": false,
      "rstrip": false,
      "normalized": false,
      "special": true
    },
    {
      "id": 133,
      "content": "City_115",
      "single_word": false,
      "lstrip": false,
      "rstrip": false,
      "normalized": false,
      "special": true
    },
    {
      "id": 134,
      "content": "City_116",
      "single_word": false,
      "lstrip": false,
      "rstrip": false,
      "normalized": false,
      "special": true
    },
    {
      "id": 135,
      "content": "City_117",
      "single_word": false,
      "lstrip": false,
      "rstrip": false,
      "normalized": false,
      "special": true
    },
    {
      "id": 136,
      "content": "City_118",
      "single_word": false,
      "lstrip": false,
      "rstrip": false,
      "normalized": false,
      "special": true
    },
    {
      "id": 137,
      "content": "City_119",
      "single_word": false,
      "lstrip": false,
      "rstrip": false,
      "normalized": false,
      "special": true
    },
    {
      "id": 138,
      "content": "City_120",
      "single_word": false,
      "lstrip": false,
      "rstrip": false,
      "normalized": false,
      "special": true
    },
    {
      "id": 139,
      "content": "City_121",
      "single_word": false,
      "lstrip": false,
      "rstrip": false,
      "normalized": false,
      "special": true
    },
    {
      "id": 140,
      "content": "City_122",
      "single_word": false,
      "lstrip": false,
      "rstrip": false,
      "normalized": false,
      "special": true
    },
    {
      "id": 141,
      "content": "City_123",
      "single_word": false,
      "lstrip": false,
      "rstrip": false,
      "normalized": false,
      "special": true
    },
    {
      "id": 142,
      "content": "City_124",
      "single_word": false,
      "lstrip": false,
      "rstrip": false,
      "normalized": false,
      "special": true
    },
    {
      "id": 143,
      "content": "City_125",
      "single_word": false,
      "lstrip": false,
      "rstrip": false,
      "normalized": false,
      "special": true
    },
    {
      "id": 144,
      "content": "City_126",
      "single_word": false,
      "lstrip": false,
      "rstrip": false,
      "normalized": false,
      "special": true
    },
    {
      "id": 145,
      "content": "City_127",
      "single_word": false,
      "lstrip": false,
      "rstrip": false,
      "normalized": false,
      "special": true
    },
    {
      "id": 146,
      "content": "City_128",
      "single_word": false,
      "lstrip": false,
      "rstrip": false,
      "normalized": false,
      "special": true
    },
    {
      "id": 147,
      "content": "City_129",
      "single_word": false,
      "lstrip": false,
      "rstrip": false,
      "normalized": false,
      "special": true
    },
    {
      "id": 148,
      "content": "City_130",
      "single_word": false,
      "lstrip": false,
      "rstrip": false,
      "normalized": false,
      "special": true
    },
    {
      "id": 149,
      "content": "City_131",
      "single_word": false,
      "lstrip": false,
      "rstrip": false,
      "normalized": false,
      "special": true
    },
    {
      "id": 150,
      "content": "City_132",
      "single_word": false,
      "lstrip": false,
      "rstrip": false,
      "normalized": false,
      "special": true
    },
    {
      "id": 151,
      "content": "City_133",
      "single_word": false,
      "lstrip": false,
      "rstrip": false,
      "normalized": false,
      "special": true
    },
    {
      "id": 152,
      "content": "City_134",
      "single_word": false,
      "lstrip": false,
      "rstrip": false,
      "normalized": false,
      "special": true
    },
    {
      "id": 153,
      "content": "City_135",
      "single_word": false,
      "lstrip": false,
      "rstrip": false,
      "normalized": false,
      "special": true
    },
    {
      "id": 154,
      "content": "City_136",
      "single_word": false,
      "lstrip": false,
      "rstrip": false,
      "normalized": false,
      "special": true
    },
    {
      "id": 155,
      "content": "City_137",
      "single_word": false,
      "lstrip": false,
      "rstrip": false,
      "normalized": false,
      "special": true
    },
    {
      "id": 156,
      "content": "City_138",
      "single_word": false,
      "lstrip": false,
      "rstrip": false,
      "normalized": false,
      "special": true
    },
    {
      "id": 157,
      "content": "City_139",
      "single_word": false,
      "lstrip": false,
      "rstrip": false,
      "normalized": false,
      "special": true
    },
    {
      "id": 158,
      "content": "City_140",
      "single_word": false,
      "lstrip": false,
      "rstrip": false,
      "normalized": false,
      "special": true
    },
    {
      "id": 159,
      "content": "City_141",
      "single_word": false,
      "lstrip": false,
      "rstrip": false,
      "normalized": false,
      "special": true
    },
    {
      "id": 160,
      "content": "City_142",
      "single_word": false,
      "lstrip": false,
      "rstrip": false,
      "normalized": false,
      "special": true
    },
    {
      "id": 161,
      "content": "City_143",
      "single_word": false,
      "lstrip": false,
      "rstrip": false,
      "normalized": false,
      "special": true
    },
    {
      "id": 162,
      "content": "City_144",
      "single_word": false,
      "lstrip": false,
      "rstrip": false,
      "normalized": false,
      "special": true
    },
    {
      "id": 163,
      "content": "City_145",
      "single_word": false,
      "lstrip": false,
      "rstrip": false,
      "normalized": false,
      "special": true
    },
    {
      "id": 164,
      "content": "City_146",
      "single_word": false,
      "lstrip": false,
      "rstrip": false,
      "normalized": false,
      "special": true
    },
    {
      "id": 165,
      "content": "City_147",
      "single_word": false,
      "lstrip": false,
      "rstrip": false,
      "normalized": false,
      "special": true
    },
    {
      "id": 166,
      "content": "City_148",
      "single_word": false,
      "lstrip": false,
      "rstrip": false,
      "normalized": false,
      "special": true
    },
    {
      "id": 167,
      "content": "City_149",
      "single_word": false,
      "lstrip": false,
      "rstrip": false,
      "normalized": false,
      "special": true
    },
    {
      "id": 168,
      "content": "City_150",
      "single_word": false,
      "lstrip": false,
      "rstrip": false,
      "normalized": false,
      "special": true
    },
    {
      "id": 169,
      "content": "City_151",
      "single_word": false,
      "lstrip": false,
      "rstrip": false,
      "normalized": false,
      "special": true
    },
    {
      "id": 170,
      "content": "City_152",
      "single_word": false,
      "lstrip": false,
      "rstrip": false,
      "normalized": false,
      "special": true
    },
    {
      "id": 171,
      "content": "City_153",
      "single_word": false,
      "lstrip": false,
      "rstrip": false,
      "normalized": false,
      "special": true
    },
    {
      "id": 172,
      "content": "City_154",
      "single_word": false,
      "lstrip": false,
      "rstrip": false,
      "normalized": false,
      "special": true
    },
    {
      "id": 173,
      "content": "City_155",
      "single_word": false,
      "lstrip": false,
      "rstrip": false,
      "normalized": false,
      "special": true
    },
    {
      "id": 174,
      "content": "City_156",
      "single_word": false,
      "lstrip": false,
      "rstrip": false,
      "normalized": false,
      "special": true
    },
    {
      "id": 175,
      "content": "City_157",
      "single_word": false,
      "lstrip": false,
      "rstrip": false,
      "normalized": false,
      "special": true
    },
    {
      "id": 176,
      "content": "City_158",
      "single_word": false,
      "lstrip": false,
      "rstrip": false,
      "normalized": false,
      "special": true
    },
    {
      "id": 177,
      "content": "City_159",
      "single_word": false,
      "lstrip": false,
      "rstrip": false,
      "normalized": false,
      "special": true
    },
    {
      "id": 178,
      "content": "City_160",
      "single_word": false,
      "lstrip": false,
      "rstrip": false,
      "normalized": false,
      "special": true
    },
    {
      "id": 179,
      "content": "City_161",
      "single_word": false,
      "lstrip": false,
      "rstrip": false,
      "normalized": false,
      "special": true
    },
    {
      "id": 180,
      "content": "City_162",
      "single_word": false,
      "lstrip": false,
      "rstrip": false,
      "normalized": false,
      "special": true
    },
    {
      "id": 181,
      "content": "City_163",
      "single_word": false,
      "lstrip": false,
      "rstrip": false,
      "normalized": false,
      "special": true
    },
    {
      "id": 182,
      "content": "City_164",
      "single_word": false,
      "lstrip": false,
      "rstrip": false,
      "normalized": false,
      "special": true
    },
    {
      "id": 183,
      "content": "City_165",
      "single_word": false,
      "lstrip": false,
      "rstrip": false,
      "normalized": false,
      "special": true
    },
    {
      "id": 184,
      "content": "City_166",
      "single_word": false,
      "lstrip": false,
      "rstrip": false,
      "normalized": false,
      "special": true
    },
    {
      "id": 185,
      "content": "City_167",
      "single_word": false,
      "lstrip": false,
      "rstrip": false,
      "normalized": false,
      "special": true
    },
    {
      "id": 186,
      "content": "City_168",
      "single_word": false,
      "lstrip": false,
      "rstrip": false,
      "normalized": false,
      "special": true
    },
    {
      "id": 187,
      "content": "City_169",
      "single_word": false,
      "lstrip": false,
      "rstrip": false,
      "normalized": false,
      "special": true
    },
    {
      "id": 188,
      "content": "City_170",
      "single_word": false,
      "lstrip": false,
      "rstrip": false,
      "normalized": false,
      "special": true
    },
    {
      "id": 189,
      "content": "City_171",
      "single_word": false,
      "lstrip": false,
      "rstrip": false,
      "normalized": false,
      "special": true
    },
    {
      "id": 190,
      "content": "City_172",
      "single_word": false,
      "lstrip": false,
      "rstrip": false,
      "normalized": false,
      "special": true
    },
    {
      "id": 191,
      "content": "City_173",
      "single_word": false,
      "lstrip": false,
      "rstrip": false,
      "normalized": false,
      "special": true
    },
    {
      "id": 192,
      "content": "City_174",
      "single_word": false,
      "lstrip": false,
      "rstrip": false,
      "normalized": false,
      "special": true
    },
    {
      "id": 193,
      "content": "City_175",
      "single_word": false,
      "lstrip": false,
      "rstrip": false,
      "normalized": false,
      "special": true
    },
    {
      "id": 194,
      "content": "City_176",
      "single_word": false,
      "lstrip": false,
      "rstrip": false,
      "normalized": false,
      "special": true
    },
    {
      "id": 195,
      "content": "City_177",
      "single_word": false,
      "lstrip": false,
      "rstrip": false,
      "normalized": false,
      "special": true
    },
    {
      "id": 196,
      "content": "City_178",
      "single_word": false,
      "lstrip": false,
      "rstrip": false,
      "normalized": false,
      "special": true
    },
    {
      "id": 197,
      "content": "City_179",
      "single_word": false,
      "lstrip": false,
      "rstrip": false,
      "normalized": false,
      "special": true
    },
    {
      "id": 198,
      "content": "City_180",
      "single_word": false,
      "lstrip": false,
      "rstrip": false,
      "normalized": false,
      "special": true
    },
    {
      "id": 199,
      "content": "City_181",
      "single_word": false,
      "lstrip": false,
      "rstrip": false,
      "normalized": false,
      "special": true
    },
    {
      "id": 200,
      "content": "City_182",
      "single_word": false,
      "lstrip": false,
      "rstrip": false,
      "normalized": false,
      "special": true
    },
    {
      "id": 201,
      "content": "City_183",
      "single_word": false,
      "lstrip": false,
      "rstrip": false,
      "normalized": false,
      "special": true
    },
    {
      "id": 202,
      "content": "City_184",
      "single_word": false,
      "lstrip": false,
      "rstrip": false,
      "normalized": false,
      "special": true
    },
    {
      "id": 203,
      "content": "City_185",
      "single_word": false,
      "lstrip": false,
      "rstrip": false,
      "normalized": false,
      "special": true
    },
    {
      "id": 204,
      "content": "City_186",
      "single_word": false,
      "lstrip": false,
      "rstrip": false,
      "normalized": false,
      "special": true
    },
    {
      "id": 205,
      "content": "City_187",
      "single_word": false,
      "lstrip": false,
      "rstrip": false,
      "normalized": false,
      "special": true
    },
    {
      "id": 206,
      "content": "City_188",
      "single_word": false,
      "lstrip": false,
      "rstrip": false,
      "normalized": false,
      "special": true
    },
    {
      "id": 207,
      "content": "City_189",
      "single_word": false,
      "lstrip": false,
      "rstrip": false,
      "normalized": false,
      "special": true
    },
    {
      "id": 208,
      "content": "City_190",
      "single_word": false,
      "lstrip": false,
      "rstrip": false,
      "normalized": false,
      "special": true
    },
    {
      "id": 209,
      "content": "City_191",
      "single_word": false,
      "lstrip": false,
      "rstrip": false,
      "normalized": false,
      "special": true
    },
    {
      "id": 210,
      "content": "City_192",
      "single_word": false,
      "lstrip": false,
      "rstrip": false,
      "normalized": false,
      "special": true
    },
    {
      "id": 211,
      "content": "City_193",
      "single_word": false,
      "lstrip": false,
      "rstrip": false,
      "normalized": false,
      "special": true
    },
    {
      "id": 212,
      "content": "City_194",
      "single_word": false,
      "lstrip": false,
      "rstrip": false,
      "normalized": false,
      "special": true
    },
    {
      "id": 213,
      "content": "City_195",
      "single_word": false,
      "lstrip": false,
      "rstrip": false,
      "normalized": false,
      "special": true
    },
    {
      "id": 214,
      "content": "City_196",
      "single_word": false,
      "lstrip": false,
      "rstrip": false,
      "normalized": false,
      "special": true
    },
    {
      "id": 215,
      "content": "City_197",
      "single_word": false,
      "lstrip": false,
      "rstrip": false,
      "normalized": false,
      "special": true
    },
    {
      "id": 216,
      "content": "City_198",
      "single_word": false,
      "lstrip": false,
      "rstrip": false,
      "normalized": false,
      "special": true
    },
    {
      "id": 217,
      "content": "City_199",
      "single_word": false,
      "lstrip": false,
      "rstrip": false,
      "normalized": false,
      "special": true
    },
    {
      "id": 218,
      "content": "City_200",
      "single_word": false,
      "lstrip": false,
      "rstrip": false,
      "normalized": false,
      "special": true
    },
    {
      "id": 219,
      "content": "City_201",
      "single_word": false,
      "lstrip": false,
      "rstrip": false,
      "normalized": false,
      "special": true
    },
    {
      "id": 220,
      "content": "City_202",
      "single_word": false,
      "lstrip": false,
      "rstrip": false,
      "normalized": false,
      "special": true
    },
    {
      "id": 221,
      "content": "City_203",
      "single_word": false,
      "lstrip": false,
      "rstrip": false,
      "normalized": false,
      "special": true
    },
    {
      "id": 222,
      "content": "City_204",
      "single_word": false,
      "lstrip": false,
      "rstrip": false,
      "normalized": false,
      "special": true
    },
    {
      "id": 223,
      "content": "City_205",
      "single_word": false,
      "lstrip": false,
      "rstrip": false,
      "normalized": false,
      "special": true
    },
    {
      "id": 224,
      "content": "City_206",
      "single_word": false,
      "lstrip": false,
      "rstrip": false,
      "normalized": false,
      "special": true
    },
    {
      "id": 225,
      "content": "City_207",
      "single_word": false,
      "lstrip": false,
      "rstrip": false,
      "normalized": false,
      "special": true
    },
    {
      "id": 226,
      "content": "City_208",
      "single_word": false,
      "lstrip": false,
      "rstrip": false,
      "normalized": false,
      "special": true
    },
    {
      "id": 227,
      "content": "City_209",
      "single_word": false,
      "lstrip": false,
      "rstrip": false,
      "normalized": false,
      "special": true
    },
    {
      "id": 228,
      "content": "City_210",
      "single_word": false,
      "lstrip": false,
      "rstrip": false,
      "normalized": false,
      "special": true
    },
    {
      "id": 229,
      "content": "City_211",
      "single_word": false,
      "lstrip": false,
      "rstrip": false,
      "normalized": false,
      "special": true
    },
    {
      "id": 230,
      "content": "City_212",
      "single_word": false,
      "lstrip": false,
      "rstrip": false,
      "normalized": false,
      "special": true
    },
    {
      "id": 231,
      "content": "City_213",
      "single_word": false,
      "lstrip": false,
      "rstrip": false,
      "normalized": false,
      "special": true
    },
    {
      "id": 232,
      "content": "City_214",
      "single_word": false,
      "lstrip": false,
      "rstrip": false,
      "normalized": false,
      "special": true
    },
    {
      "id": 233,
      "content": "City_215",
      "single_word": false,
      "lstrip": false,
      "rstrip": false,
      "normalized": false,
      "special": true
    },
    {
      "id": 234,
      "content": "City_216",
      "single_word": false,
      "lstrip": false,
      "rstrip": false,
      "normalized": false,
      "special": true
    },
    {
      "id": 235,
      "content": "City_217",
      "single_word": false,
      "lstrip": false,
      "rstrip": false,
      "normalized": false,
      "special": true
    },
    {
      "id": 236,
      "content": "City_218",
      "single_word": false,
      "lstrip": false,
      "rstrip": false,
      "normalized": false,
      "special": true
    },
    {
      "id": 237,
      "content": "City_219",
      "single_word": false,
      "lstrip": false,
      "rstrip": false,
      "normalized": false,
      "special": true
    },
    {
      "id": 238,
      "content": "City_220",
      "single_word": false,
      "lstrip": false,
      "rstrip": false,
      "normalized": false,
      "special": true
    },
    {
      "id": 239,
      "content": "City_221",
      "single_word": false,
      "lstrip": false,
      "rstrip": false,
      "normalized": false,
      "special": true
    },
    {
      "id": 240,
      "content": "City_222",
      "single_word": false,
      "lstrip": false,
      "rstrip": false,
      "normalized": false,
      "special": true
    },
    {
      "id": 241,
      "content": "City_223",
      "single_word": false,
      "lstrip": false,
      "rstrip": false,
      "normalized": false,
      "special": true
    },
    {
      "id": 242,
      "content": "City_224",
      "single_word": false,
      "lstrip": false,
      "rstrip": false,
      "normalized": false,
      "special": true
    },
    {
      "id": 243,
      "content": "City_225",
      "single_word": false,
      "lstrip": false,
      "rstrip": false,
      "normalized": false,
      "special": true
    },
    {
      "id": 244,
      "content": "City_226",
      "single_word": false,
      "lstrip": false,
      "rstrip": false,
      "normalized": false,
      "special": true
    },
    {
      "id": 245,
      "content": "City_227",
      "single_word": false,
      "lstrip": false,
      "rstrip": false,
      "normalized": false,
      "special": true
    },
    {
      "id": 246,
      "content": "City_228",
      "single_word": false,
      "lstrip": false,
      "rstrip": false,
      "normalized": false,
      "special": true
    },
    {
      "id": 247,
      "content": "City_229",
      "single_word": false,
      "lstrip": false,
      "rstrip": false,
      "normalized": false,
      "special": true
    },
    {
      "id": 248,
      "content": "City_230",
      "single_word": false,
      "lstrip": false,
      "rstrip": false,
      "normalized": false,
      "special": true
    },
    {
      "id": 249,
      "content": "City_231",
      "single_word": false,
      "lstrip": false,
      "rstrip": false,
      "normalized": false,
      "special": true
    },
    {
      "id": 250,
      "content": "City_232",
      "single_word": false,
      "lstrip": false,
      "rstrip": false,
      "normalized": false,
      "special": true
    },
    {
      "id": 251,
      "content": "City_233",
      "single_word": false,
      "lstrip": false,
      "rstrip": false,
      "normalized": false,
      "special": true
    },
    {
      "id": 252,
      "content": "City_234",
      "single_word": false,
      "lstrip": false,
      "rstrip": false,
      "normalized": false,
      "special": true
    },
    {
      "id": 253,
      "content": "City_235",
      "single_word": false,
      "lstrip": false,
      "rstrip": false,
      "normalized": false,
      "special": true
    },
    {
      "id": 254,
      "content": "City_236",
      "single_word": false,
      "lstrip": false,
      "rstrip": false,
      "normalized": false,
      "special": true
    },
    {
      "id": 255,
      "content": "City_237",
      "single_word": false,
      "lstrip": false,
      "rstrip": false,
      "normalized": false,
      "special": true
    },
    {
      "id": 256,
      "content": "City_238",
      "single_word": false,
      "lstrip": false,
      "rstrip": false,
      "normalized": false,
      "special": true
    },
    {
      "id": 257,
      "content": "City_239",
      "single_word": false,
      "lstrip": false,
      "rstrip": false,
      "normalized": false,
      "special": true
    },
    {
      "id": 258,
      "content": "City_240",
      "single_word": false,
      "lstrip": false,
      "rstrip": false,
      "normalized": false,
      "special": true
    },
    {
      "id": 259,
      "content": "City_241",
      "single_word": false,
      "lstrip": false,
      "rstrip": false,
      "normalized": false,
      "special": true
    },
    {
      "id": 260,
      "content": "City_242",
      "single_word": false,
      "lstrip": false,
      "rstrip": false,
      "normalized": false,
      "special": true
    },
    {
      "id": 261,
      "content": "City_243",
      "single_word": false,
      "lstrip": false,
      "rstrip": false,
      "normalized": false,
      "special": true
    },
    {
      "id": 262,
      "content": "City_244",
      "single_word": false,
      "lstrip": false,
      "rstrip": false,
      "normalized": false,
      "special": true
    },
    {
      "id": 263,
      "content": "City_245",
      "single_word": false,
      "lstrip": false,
      "rstrip": false,
      "normalized": false,
      "special": true
    },
    {
      "id": 264,
      "content": "City_246",
      "single_word": false,
      "lstrip": false,
      "rstrip": false,
      "normalized": false,
      "special": true
    },
    {
      "id": 265,
      "content": "City_247",
      "single_word": false,
      "lstrip": false,
      "rstrip": false,
      "normalized": false,
      "special": true
    },
    {
      "id": 266,
      "content": "City_248",
      "single_word": false,
      "lstrip": false,
      "rstrip": false,
      "normalized": false,
      "special": true
    },
    {
      "id": 267,
      "content": "City_249",
      "single_word": false,
      "lstrip": false,
      "rstrip": false,
      "normalized": false,
      "special": true
    },
    {
      "id": 268,
      "content": "City_250",
      "single_word": false,
      "lstrip": false,
      "rstrip": false,
      "normalized": false,
      "special": true
    },
    {
      "id": 269,
      "content": "City_251",
      "single_word": false,
      "lstrip": false,
      "rstrip": false,
      "normalized": false,
      "special": true
    },
    {
      "id": 270,
      "content": "City_252",
      "single_word": false,
      "lstrip": false,
      "rstrip": false,
      "normalized": false,
      "special": true
    },
    {
      "id": 271,
      "content": "City_253",
      "single_word": false,
      "lstrip": false,
      "rstrip": false,
      "normalized": false,
      "special": true
    },
    {
      "id": 272,
      "content": "City_254",
      "single_word": false,
      "lstrip": false,
      "rstrip": false,
      "normalized": false,
      "special": true
    },
    {
      "id": 273,
      "content": "City_255",
      "single_word": false,
      "lstrip": false,
      "rstrip": false,
      "normalized": false,
      "special": true
    },
    {
      "id": 274,
      "content": "City_256",
      "single_word": false,
      "lstrip": false,
      "rstrip": false,
      "normalized": false,
      "special": true
    },
    {
      "id": 275,
      "content": "City_257",
      "single_word": false,
      "lstrip": false,
      "rstrip": false,
      "normalized": false,
      "special": true
    },
    {
      "id": 276,
      "content": "City_258",
      "single_word": false,
      "lstrip": false,
      "rstrip": false,
      "normalized": false,
      "special": true
    },
    {
      "id": 277,
      "content": "City_259",
      "single_word": false,
      "lstrip": false,
      "rstrip": false,
      "normalized": false,
      "special": true
    },
    {
      "id": 278,
      "content": "City_260",
      "single_word": false,
      "lstrip": false,
      "rstrip": false,
      "normalized": false,
      "special": true
    },
    {
      "id": 279,
      "content": "City_261",
      "single_word": false,
      "lstrip": false,
      "rstrip": false,
      "normalized": false,
      "special": true
    },
    {
      "id": 280,
      "content": "City_262",
      "single_word": false,
      "lstrip": false,
      "rstrip": false,
      "normalized": false,
      "special": true
    },
    {
      "id": 281,
      "content": "City_263",
      "single_word": false,
      "lstrip": false,
      "rstrip": false,
      "normalized": false,
      "special": true
    },
    {
      "id": 282,
      "content": "City_264",
      "single_word": false,
      "lstrip": false,
      "rstrip": false,
      "normalized": false,
      "special": true
    },
    {
      "id": 283,
      "content": "City_265",
      "single_word": false,
      "lstrip": false,
      "rstrip": false,
      "normalized": false,
      "special": true
    },
    {
      "id": 284,
      "content": "City_266",
      "single_word": false,
      "lstrip": false,
      "rstrip": false,
      "normalized": false,
      "special": true
    },
    {
      "id": 285,
      "content": "City_267",
      "single_word": false,
      "lstrip": false,
      "rstrip": false,
      "normalized": false,
      "special": true
    },
    {
      "id": 286,
      "content": "City_268",
      "single_word": false,
      "lstrip": false,
      "rstrip": false,
      "normalized": false,
      "special": true
    },
    {
      "id": 287,
      "content": "City_269",
      "single_word": false,
      "lstrip": false,
      "rstrip": false,
      "normalized": false,
      "special": true
    },
    {
      "id": 288,
      "content": "City_270",
      "single_word": false,
      "lstrip": false,
      "rstrip": false,
      "normalized": false,
      "special": true
    },
    {
      "id": 289,
      "content": "City_271",
      "single_word": false,
      "lstrip": false,
      "rstrip": false,
      "normalized": false,
      "special": true
    },
    {
      "id": 290,
      "content": "City_272",
      "single_word": false,
      "lstrip": false,
      "rstrip": false,
      "normalized": false,
      "special": true
    },
    {
      "id": 291,
      "content": "City_273",
      "single_word": false,
      "lstrip": false,
      "rstrip": false,
      "normalized": false,
      "special": true
    },
    {
      "id": 292,
      "content": "City_274",
      "single_word": false,
      "lstrip": false,
      "rstrip": false,
      "normalized": false,
      "special": true
    },
    {
      "id": 293,
      "content": "City_275",
      "single_word": false,
      "lstrip": false,
      "rstrip": false,
      "normalized": false,
      "special": true
    },
    {
      "id": 294,
      "content": "City_276",
      "single_word": false,
      "lstrip": false,
      "rstrip": false,
      "normalized": false,
      "special": true
    },
    {
      "id": 295,
      "content": "City_277",
      "single_word": false,
      "lstrip": false,
      "rstrip": false,
      "normalized": false,
      "special": true
    },
    {
      "id": 296,
      "content": "City_278",
      "single_word": false,
      "lstrip": false,
      "rstrip": false,
      "normalized": false,
      "special": true
    },
    {
      "id": 297,
      "content": "City_279",
      "single_word": false,
      "lstrip": false,
      "rstrip": false,
      "normalized": false,
      "special": true
    },
    {
      "id": 298,
      "content": "City_280",
      "single_word": false,
      "lstrip": false,
      "rstrip": false,
      "normalized": false,
      "special": true
    },
    {
      "id": 299,
      "content": "City_281",
      "single_word": false,
      "lstrip": false,
      "rstrip": false,
      "normalized": false,
      "special": true
    },
    {
      "id": 300,
      "content": "City_282",
      "single_word": false,
      "lstrip": false,
      "rstrip": false,
      "normalized": false,
      "special": true
    },
    {
      "id": 301,
      "content": "City_283",
      "single_word": false,
      "lstrip": false,
      "rstrip": false,
      "normalized": false,
      "special": true
    },
    {
      "id": 302,
      "content": "City_284",
      "single_word": false,
      "lstrip": false,
      "rstrip": false,
      "normalized": false,
      "special": true
    },
    {
      "id": 303,
      "content": "City_285",
      "single_word": false,
      "lstrip": false,
      "rstrip": false,
      "normalized": false,
      "special": true
    },
    {
      "id": 304,
      "content": "City_286",
      "single_word": false,
      "lstrip": false,
      "rstrip": false,
      "normalized": false,
      "special": true
    },
    {
      "id": 305,
      "content": "City_287",
      "single_word": false,
      "lstrip": false,
      "rstrip": false,
      "normalized": false,
      "special": true
    },
    {
      "id": 306,
      "content": "City_288",
      "single_word": false,
      "lstrip": false,
      "rstrip": false,
      "normalized": false,
      "special": true
    },
    {
      "id": 307,
      "content": "City_289",
      "single_word": false,
      "lstrip": false,
      "rstrip": false,
      "normalized": false,
      "special": true
    },
    {
      "id": 308,
      "content": "City_290",
      "single_word": false,
      "lstrip": false,
      "rstrip": false,
      "normalized": false,
      "special": true
    },
    {
      "id": 309,
      "content": "City_291",
      "single_word": false,
      "lstrip": false,
      "rstrip": false,
      "normalized": false,
      "special": true
    },
    {
      "id": 310,
      "content": "City_292",
      "single_word": false,
      "lstrip": false,
      "rstrip": false,
      "normalized": false,
      "special": true
    },
    {
      "id": 311,
      "content": "City_293",
      "single_word": false,
      "lstrip": false,
      "rstrip": false,
      "normalized": false,
      "special": true
    },
    {
      "id": 312,
      "content": "City_294",
      "single_word": false,
      "lstrip": false,
      "rstrip": false,
      "normalized": false,
      "special": true
    },
    {
      "id": 313,
      "content": "City_295",
      "single_word": false,
      "lstrip": false,
      "rstrip": false,
      "normalized": false,
      "special": true
    },
    {
      "id": 314,
      "content": "City_296",
      "single_word": false,
      "lstrip": false,
      "rstrip": false,
      "normalized": false,
      "special": true
    },
    {
      "id": 315,
      "content": "City_297",
      "single_word": false,
      "lstrip": false,
      "rstrip": false,
      "normalized": false,
      "special": true
    },
    {
      "id": 316,
      "content": "City_298",
      "single_word": false,
      "lstrip": false,
      "rstrip": false,
      "normalized": false,
      "special": true
    },
    {
      "id": 317,
      "content": "City_299",
      "single_word": false,
      "lstrip": false,
      "rstrip": false,
      "normalized": false,
      "special": true
    },
    {
      "id": 318,
      "content": "City_300",
      "single_word": false,
      "lstrip": false,
      "rstrip": false,
      "normalized": false,
      "special": true
    },
    {
      "id": 319,
      "content": "City_301",
      "single_word": false,
      "lstrip": false,
      "rstrip": false,
      "normalized": false,
      "special": true
    },
    {
      "id": 320,
      "content": "City_302",
      "single_word": false,
      "lstrip": false,
      "rstrip": false,
      "normalized": false,
      "special": true
    },
    {
      "id": 321,
      "content": "City_303",
      "single_word": false,
      "lstrip": false,
      "rstrip": false,
      "normalized": false,
      "special": true
    },
    {
      "id": 322,
      "content": "City_304",
      "single_word": false,
      "lstrip": false,
      "rstrip": false,
      "normalized": false,
      "special": true
    },
    {
      "id": 323,
      "content": "City_305",
      "single_word": false,
      "lstrip": false,
      "rstrip": false,
      "normalized": false,
      "special": true
    },
    {
      "id": 324,
      "content": "City_306",
      "single_word": false,
      "lstrip": false,
      "rstrip": false,
      "normalized": false,
      "special": true
    },
    {
      "id": 325,
      "content": "City_307",
      "single_word": false,
      "lstrip": false,
      "rstrip": false,
      "normalized": false,
      "special": true
    },
    {
      "id": 326,
      "content": "City_308",
      "single_word": false,
      "lstrip": false,
      "rstrip": false,
      "normalized": false,
      "special": true
    },
    {
      "id": 327,
      "content": "City_309",
      "single_word": false,
      "lstrip": false,
      "rstrip": false,
      "normalized": false,
      "special": true
    },
    {
      "id": 328,
      "content": "City_310",
      "single_word": false,
      "lstrip": false,
      "rstrip": false,
      "normalized": false,
      "special": true
    },
    {
      "id": 329,
      "content": "City_311",
      "single_word": false,
      "lstrip": false,
      "rstrip": false,
      "normalized": false,
      "special": true
    },
    {
      "id": 330,
      "content": "City_312",
      "single_word": false,
      "lstrip": false,
      "rstrip": false,
      "normalized": false,
      "special": true
    },
    {
      "id": 331,
      "content": "City_313",
      "single_word": false,
      "lstrip": false,
      "rstrip": false,
      "normalized": false,
      "special": true
    },
    {
      "id": 332,
      "content": "City_314",
      "single_word": false,
      "lstrip": false,
      "rstrip": false,
      "normalized": false,
      "special": true
    },
    {
      "id": 333,
      "content": "City_315",
      "single_word": false,
      "lstrip": false,
      "rstrip": false,
      "normalized": false,
      "special": true
    },
    {
      "id": 334,
      "content": "City_316",
      "single_word": false,
      "lstrip": false,
      "rstrip": false,
      "normalized": false,
      "special": true
    },
    {
      "id": 335,
      "content": "City_317",
      "single_word": false,
      "lstrip": false,
      "rstrip": false,
      "normalized": false,
      "special": true
    },
    {
      "id": 336,
      "content": "City_318",
      "single_word": false,
      "lstrip": false,
      "rstrip": false,
      "normalized": false,
      "special": true
    },
    {
      "id": 337,
      "content": "City_319",
      "single_word": false,
      "lstrip": false,
      "rstrip": false,
      "normalized": false,
      "special": true
    },
    {
      "id": 338,
      "content": "City_320",
      "single_word": false,
      "lstrip": false,
      "rstrip": false,
      "normalized": false,
      "special": true
    },
    {
      "id": 339,
      "content": "City_321",
      "single_word": false,
      "lstrip": false,
      "rstrip": false,
      "normalized": false,
      "special": true
    },
    {
      "id": 340,
      "content": "City_322",
      "single_word": false,
      "lstrip": false,
      "rstrip": false,
      "normalized": false,
      "special": true
    },
    {
      "id": 341,
      "content": "City_323",
      "single_word": false,
      "lstrip": false,
      "rstrip": false,
      "normalized": false,
      "special": true
    },
    {
      "id": 342,
      "content": "City_324",
      "single_word": false,
      "lstrip": false,
      "rstrip": false,
      "normalized": false,
      "special": true
    },
    {
      "id": 343,
      "content": "City_325",
      "single_word": false,
      "lstrip": false,
      "rstrip": false,
      "normalized": false,
      "special": true
    },
    {
      "id": 344,
      "content": "City_326",
      "single_word": false,
      "lstrip": false,
      "rstrip": false,
      "normalized": false,
      "special": true
    },
    {
      "id": 345,
      "content": "City_327",
      "single_word": false,
      "lstrip": false,
      "rstrip": false,
      "normalized": false,
      "special": true
    },
    {
      "id": 346,
      "content": "City_328",
      "single_word": false,
      "lstrip": false,
      "rstrip": false,
      "normalized": false,
      "special": true
    },
    {
      "id": 347,
      "content": "City_329",
      "single_word": false,
      "lstrip": false,
      "rstrip": false,
      "normalized": false,
      "special": true
    },
    {
      "id": 348,
      "content": "City_330",
      "single_word": false,
      "lstrip": false,
      "rstrip": false,
      "normalized": false,
      "special": true
    },
    {
      "id": 349,
      "content": "City_331",
      "single_word": false,
      "lstrip": false,
      "rstrip": false,
      "normalized": false,
      "special": true
    },
    {
      "id": 350,
      "content": "City_332",
      "single_word": false,
      "lstrip": false,
      "rstrip": false,
      "normalized": false,
      "special": true
    },
    {
      "id": 351,
      "content": "City_333",
      "single_word": false,
      "lstrip": false,
      "rstrip": false,
      "normalized": false,
      "special": true
    },
    {
      "id": 352,
      "content": "City_334",
      "single_word": false,
      "lstrip": false,
      "rstrip": false,
      "normalized": false,
      "special": true
    },
    {
      "id": 353,
      "content": "City_335",
      "single_word": false,
      "lstrip": false,
      "rstrip": false,
      "normalized": false,
      "special": true
    },
    {
      "id": 354,
      "content": "City_336",
      "single_word": false,
      "lstrip": false,
      "rstrip": false,
      "normalized": false,
      "special": true
    },
    {
      "id": 355,
      "content": "City_337",
      "single_word": false,
      "lstrip": false,
      "rstrip": false,
      "normalized": false,
      "special": true
    },
    {
      "id": 356,
      "content": "City_338",
      "single_word": false,
      "lstrip": false,
      "rstrip": false,
      "normalized": false,
      "special": true
    },
    {
      "id": 357,
      "content": "City_339",
      "single_word": false,
      "lstrip": false,
      "rstrip": false,
      "normalized": false,
      "special": true
    },
    {
      "id": 358,
      "content": "City_340",
      "single_word": false,
      "lstrip": false,
      "rstrip": false,
      "normalized": false,
      "special": true
    },
    {
      "id": 359,
      "content": "City_341",
      "single_word": false,
      "lstrip": false,
      "rstrip": false,
      "normalized": false,
      "special": true
    },
    {
      "id": 360,
      "content": "City_342",
      "single_word": false,
      "lstrip": false,
      "rstrip": false,
      "normalized": false,
      "special": true
    },
    {
      "id": 361,
      "content": "City_343",
      "single_word": false,
      "lstrip": false,
      "rstrip": false,
      "normalized": false,
      "special": true
    },
    {
      "id": 362,
      "content": "City_344",
      "single_word": false,
      "lstrip": false,
      "rstrip": false,
      "normalized": false,
      "special": true
    },
    {
      "id": 363,
      "content": "City_345",
      "single_word": false,
      "lstrip": false,
      "rstrip": false,
      "normalized": false,
      "special": true
    },
    {
      "id": 364,
      "content": "City_346",
      "single_word": false,
      "lstrip": false,
      "rstrip": false,
      "normalized": false,
      "special": true
    },
    {
      "id": 365,
      "content": "City_347",
      "single_word": false,
      "lstrip": false,
      "rstrip": false,
      "normalized": false,
      "special": true
    },
    {
      "id": 366,
      "content": "City_348",
      "single_word": false,
      "lstrip": false,
      "rstrip": false,
      "normalized": false,
      "special": true
    },
    {
      "id": 367,
      "content": "City_349",
      "single_word": false,
      "lstrip": false,
      "rstrip": false,
      "normalized": false,
      "special": true
    },
    {
      "id": 368,
      "content": "City_350",
      "single_word": false,
      "lstrip": false,
      "rstrip": false,
      "normalized": false,
      "special": true
    },
    {
      "id": 369,
      "content": "City_351",
      "single_word": false,
      "lstrip": false,
      "rstrip": false,
      "normalized": false,
      "special": true
    },
    {
      "id": 370,
      "content": "City_352",
      "single_word": false,
      "lstrip": false,
      "rstrip": false,
      "normalized": false,
      "special": true
    },
    {
      "id": 371,
      "content": "City_353",
      "single_word": false,
      "lstrip": false,
      "rstrip": false,
      "normalized": false,
      "special": true
    },
    {
      "id": 372,
      "content": "City_354",
      "single_word": false,
      "lstrip": false,
      "rstrip": false,
      "normalized": false,
      "special": true
    },
    {
      "id": 373,
      "content": "City_355",
      "single_word": false,
      "lstrip": false,
      "rstrip": false,
      "normalized": false,
      "special": true
    },
    {
      "id": 374,
      "content": "City_356",
      "single_word": false,
      "lstrip": false,
      "rstrip": false,
      "normalized": false,
      "special": true
    },
    {
      "id": 375,
      "content": "City_357",
      "single_word": false,
      "lstrip": false,
      "rstrip": false,
      "normalized": false,
      "special": true
    },
    {
      "id": 376,
      "content": "City_358",
      "single_word": false,
      "lstrip": false,
      "rstrip": false,
      "normalized": false,
      "special": true
    },
    {
      "id": 377,
      "content": "City_359",
      "single_word": false,
      "lstrip": false,
      "rstrip": false,
      "normalized": false,
      "special": true
    },
    {
      "id": 378,
      "content": "City_360",
      "single_word": false,
      "lstrip": false,
      "rstrip": false,
      "normalized": false,
      "special": true
    },
    {
      "id": 379,
      "content": "City_361",
      "single_word": false,
      "lstrip": false,
      "rstrip": false,
      "normalized": false,
      "special": true
    },
    {
      "id": 380,
      "content": "City_362",
      "single_word": false,
      "lstrip": false,
      "rstrip": false,
      "normalized": false,
      "special": true
    },
    {
      "id": 381,
      "content": "City_363",
      "single_word": false,
      "lstrip": false,
      "rstrip": false,
      "normalized": false,
      "special": true
    },
    {
      "id": 382,
      "content": "City_364",
      "single_word": false,
      "lstrip": false,
      "rstrip": false,
      "normalized": false,
      "special": true
    },
    {
      "id": 383,
      "content": "City_365",
      "single_word": false,
      "lstrip": false,
      "rstrip": false,
      "normalized": false,
      "special": true
    },
    {
      "id": 384,
      "content": "City_366",
      "single_word": false,
      "lstrip": false,
      "rstrip": false,
      "normalized": false,
      "special": true
    },
    {
      "id": 385,
      "content": "City_367",
      "single_word": false,
      "lstrip": false,
      "rstrip": false,
      "normalized": false,
      "special": true
    },
    {
      "id": 386,
      "content": "City_368",
      "single_word": false,
      "lstrip": false,
      "rstrip": false,
      "normalized": false,
      "special": true
    },
    {
      "id": 387,
      "content": "City_369",
      "single_word": false,
      "lstrip": false,
      "rstrip": false,
      "normalized": false,
      "special": true
    },
    {
      "id": 388,
      "content": "City_370",
      "single_word": false,
      "lstrip": false,
      "rstrip": false,
      "normalized": false,
      "special": true
    },
    {
      "id": 389,
      "content": "City_371",
      "single_word": false,
      "lstrip": false,
      "rstrip": false,
      "normalized": false,
      "special": true
    },
    {
      "id": 390,
      "content": "City_372",
      "single_word": false,
      "lstrip": false,
      "rstrip": false,
      "normalized": false,
      "special": true
    },
    {
      "id": 391,
      "content": "City_373",
      "single_word": false,
      "lstrip": false,
      "rstrip": false,
      "normalized": false,
      "special": true
    },
    {
      "id": 392,
      "content": "City_374",
      "single_word": false,
      "lstrip": false,
      "rstrip": false,
      "normalized": false,
      "special": true
    },
    {
      "id": 393,
      "content": "City_375",
      "single_word": false,
      "lstrip": false,
      "rstrip": false,
      "normalized": false,
      "special": true
    },
    {
      "id": 394,
      "content": "City_376",
      "single_word": false,
      "lstrip": false,
      "rstrip": false,
      "normalized": false,
      "special": true
    },
    {
      "id": 395,
      "content": "City_377",
      "single_word": false,
      "lstrip": false,
      "rstrip": false,
      "normalized": false,
      "special": true
    },
    {
      "id": 396,
      "content": "City_378",
      "single_word": false,
      "lstrip": false,
      "rstrip": false,
      "normalized": false,
      "special": true
    },
    {
      "id": 397,
      "content": "City_379",
      "single_word": false,
      "lstrip": false,
      "rstrip": false,
      "normalized": false,
      "special": true
    },
    {
      "id": 398,
      "content": "City_380",
      "single_word": false,
      "lstrip": false,
      "rstrip": false,
      "normalized": false,
      "special": true
    },
    {
      "id": 399,
      "content": "City_381",
      "single_word": false,
      "lstrip": false,
      "rstrip": false,
      "normalized": false,
      "special": true
    },
    {
      "id": 400,
      "content": "City_382",
      "single_word": false,
      "lstrip": false,
      "rstrip": false,
      "normalized": false,
      "special": true
    },
    {
      "id": 401,
      "content": "City_383",
      "single_word": false,
      "lstrip": false,
      "rstrip": false,
      "normalized": false,
      "special": true
    },
    {
      "id": 402,
      "content": "City_384",
      "single_word": false,
      "lstrip": false,
      "rstrip": false,
      "normalized": false,
      "special": true
    },
    {
      "id": 403,
      "content": "City_385",
      "single_word": false,
      "lstrip": false,
      "rstrip": false,
      "normalized": false,
      "special": true
    },
    {
      "id": 404,
      "content": "City_386",
      "single_word": false,
      "lstrip": false,
      "rstrip": false,
      "normalized": false,
      "special": true
    },
    {
      "id": 405,
      "content": "City_387",
      "single_word": false,
      "lstrip": false,
      "rstrip": false,
      "normalized": false,
      "special": true
    },
    {
      "id": 406,
      "content": "City_388",
      "single_word": false,
      "lstrip": false,
      "rstrip": false,
      "normalized": false,
      "special": true
    },
    {
      "id": 407,
      "content": "City_389",
      "single_word": false,
      "lstrip": false,
      "rstrip": false,
      "normalized": false,
      "special": true
    },
    {
      "id": 408,
      "content": "City_390",
      "single_word": false,
      "lstrip": false,
      "rstrip": false,
      "normalized": false,
      "special": true
    },
    {
      "id": 409,
      "content": "City_391",
      "single_word": false,
      "lstrip": false,
      "rstrip": false,
      "normalized": false,
      "special": true
    },
    {
      "id": 410,
      "content": "City_392",
      "single_word": false,
      "lstrip": false,
      "rstrip": false,
      "normalized": false,
      "special": true
    },
    {
      "id": 411,
      "content": "City_393",
      "single_word": false,
      "lstrip": false,
      "rstrip": false,
      "normalized": false,
      "special": true
    },
    {
      "id": 412,
      "content": "City_394",
      "single_word": false,
      "lstrip": false,
      "rstrip": false,
      "normalized": false,
      "special": true
    },
    {
      "id": 413,
      "content": "City_395",
      "single_word": false,
      "lstrip": false,
      "rstrip": false,
      "normalized": false,
      "special": true
    },
    {
      "id": 414,
      "content": "City_396",
      "single_word": false,
      "lstrip": false,
      "rstrip": false,
      "normalized": false,
      "special": true
    },
    {
      "id": 415,
      "content": "City_397",
      "single_word": false,
      "lstrip": false,
      "rstrip": false,
      "normalized": false,
      "special": true
    },
    {
      "id": 416,
      "content": "City_398",
      "single_word": false,
      "lstrip": false,
      "rstrip": false,
      "normalized": false,
      "special": true
    },
    {
      "id": 417,
      "content": "City_399",
      "single_word": false,
      "lstrip": false,
      "rstrip": false,
      "normalized": false,
      "special": true
    },
    {
      "id": 418,
      "content": "City_400",
      "single_word": false,
      "lstrip": false,
      "rstrip": false,
      "normalized": false,
      "special": true
    },
    {
      "id": 419,
      "content": "City_401",
      "single_word": false,
      "lstrip": false,
      "rstrip": false,
      "normalized": false,
      "special": true
    },
    {
      "id": 420,
      "content": "City_402",
      "single_word": false,
      "lstrip": false,
      "rstrip": false,
      "normalized": false,
      "special": true
    },
    {
      "id": 421,
      "content": "City_403",
      "single_word": false,
      "lstrip": false,
      "rstrip": false,
      "normalized": false,
      "special": true
    },
    {
      "id": 422,
      "content": "City_404",
      "single_word": false,
      "lstrip": false,
      "rstrip": false,
      "normalized": false,
      "special": true
    },
    {
      "id": 423,
      "content": "City_405",
      "single_word": false,
      "lstrip": false,
      "rstrip": false,
      "normalized": false,
      "special": true
    },
    {
      "id": 424,
      "content": "City_406",
      "single_word": false,
      "lstrip": false,
      "rstrip": false,
      "normalized": false,
      "special": true
    },
    {
      "id": 425,
      "content": "City_407",
      "single_word": false,
      "lstrip": false,
      "rstrip": false,
      "normalized": false,
      "special": true
    },
    {
      "id": 426,
      "content": "City_408",
      "single_word": false,
      "lstrip": false,
      "rstrip": false,
      "normalized": false,
      "special": true
    },
    {
      "id": 427,
      "content": "City_409",
      "single_word": false,
      "lstrip": false,
      "rstrip": false,
      "normalized": false,
      "special": true
    },
    {
      "id": 428,
      "content": "City_410",
      "single_word": false,
      "lstrip": false,
      "rstrip": false,
      "normalized": false,
      "special": true
    },
    {
      "id": 429,
      "content": "City_411",
      "single_word": false,
      "lstrip": false,
      "rstrip": false,
      "normalized": false,
      "special": true
    },
    {
      "id": 430,
      "content": "City_412",
      "single_word": false,
      "lstrip": false,
      "rstrip": false,
      "normalized": false,
      "special": true
    },
    {
      "id": 431,
      "content": "City_413",
      "single_word": false,
      "lstrip": false,
      "rstrip": false,
      "normalized": false,
      "special": true
    },
    {
      "id": 432,
      "content": "City_414",
      "single_word": false,
      "lstrip": false,
      "rstrip": false,
      "normalized": false,
      "special": true
    },
    {
      "id": 433,
      "content": "City_415",
      "single_word": false,
      "lstrip": false,
      "rstrip": false,
      "normalized": false,
      "special": true
    },
    {
      "id": 434,
      "content": "City_416",
      "single_word": false,
      "lstrip": false,
      "rstrip": false,
      "normalized": false,
      "special": true
    },
    {
      "id": 435,
      "content": "City_417",
      "single_word": false,
      "lstrip": false,
      "rstrip": false,
      "normalized": false,
      "special": true
    },
    {
      "id": 436,
      "content": "City_418",
      "single_word": false,
      "lstrip": false,
      "rstrip": false,
      "normalized": false,
      "special": true
    },
    {
      "id": 437,
      "content": "City_419",
      "single_word": false,
      "lstrip": false,
      "rstrip": false,
      "normalized": false,
      "special": true
    },
    {
      "id": 438,
      "content": "City_420",
      "single_word": false,
      "lstrip": false,
      "rstrip": false,
      "normalized": false,
      "special": true
    },
    {
      "id": 439,
      "content": "City_421",
      "single_word": false,
      "lstrip": false,
      "rstrip": false,
      "normalized": false,
      "special": true
    },
    {
      "id": 440,
      "content": "City_422",
      "single_word": false,
      "lstrip": false,
      "rstrip": false,
      "normalized": false,
      "special": true
    },
    {
      "id": 441,
      "content": "City_423",
      "single_word": false,
      "lstrip": false,
      "rstrip": false,
      "normalized": false,
      "special": true
    },
    {
      "id": 442,
      "content": "City_424",
      "single_word": false,
      "lstrip": false,
      "rstrip": false,
      "normalized": false,
      "special": true
    },
    {
      "id": 443,
      "content": "City_425",
      "single_word": false,
      "lstrip": false,
      "rstrip": false,
      "normalized": false,
      "special": true
    },
    {
      "id": 444,
      "content": "City_426",
      "single_word": false,
      "lstrip": false,
      "rstrip": false,
      "normalized": false,
      "special": true
    },
    {
      "id": 445,
      "content": "City_427",
      "single_word": false,
      "lstrip": false,
      "rstrip": false,
      "normalized": false,
      "special": true
    },
    {
      "id": 446,
      "content": "City_428",
      "single_word": false,
      "lstrip": false,
      "rstrip": false,
      "normalized": false,
      "special": true
    },
    {
      "id": 447,
      "content": "City_429",
      "single_word": false,
      "lstrip": false,
      "rstrip": false,
      "normalized": false,
      "special": true
    },
    {
      "id": 448,
      "content": "City_430",
      "single_word": false,
      "lstrip": false,
      "rstrip": false,
      "normalized": false,
      "special": true
    },
    {
      "id": 449,
      "content": "City_431",
      "single_word": false,
      "lstrip": false,
      "rstrip": false,
      "normalized": false,
      "special": true
    },
    {
      "id": 450,
      "content": "City_432",
      "single_word": false,
      "lstrip": false,
      "rstrip": false,
      "normalized": false,
      "special": true
    },
    {
      "id": 451,
      "content": "City_433",
      "single_word": false,
      "lstrip": false,
      "rstrip": false,
      "normalized": false,
      "special": true
    },
    {
      "id": 452,
      "content": "City_434",
      "single_word": false,
      "lstrip": false,
      "rstrip": false,
      "normalized": false,
      "special": true
    },
    {
      "id": 453,
      "content": "City_435",
      "single_word": false,
      "lstrip": false,
      "rstrip": false,
      "normalized": false,
      "special": true
    },
    {
      "id": 454,
      "content": "City_436",
      "single_word": false,
      "lstrip": false,
      "rstrip": false,
      "normalized": false,
      "special": true
    },
    {
      "id": 455,
      "content": "City_437",
      "single_word": false,
      "lstrip": false,
      "rstrip": false,
      "normalized": false,
      "special": true
    },
    {
      "id": 456,
      "content": "City_438",
      "single_word": false,
      "lstrip": false,
      "rstrip": false,
      "normalized": false,
      "special": true
    },
    {
      "id": 457,
      "content": "City_439",
      "single_word": false,
      "lstrip": false,
      "rstrip": false,
      "normalized": false,
      "special": true
    },
    {
      "id": 458,
      "content": "City_440",
      "single_word": false,
      "lstrip": false,
      "rstrip": false,
      "normalized": false,
      "special": true
    },
    {
      "id": 459,
      "content": "City_441",
      "single_word": false,
      "lstrip": false,
      "rstrip": false,
      "normalized": false,
      "special": true
    },
    {
      "id": 460,
      "content": "City_442",
      "single_word": false,
      "lstrip": false,
      "rstrip": false,
      "normalized": false,
      "special": true
    },
    {
      "id": 461,
      "content": "City_443",
      "single_word": false,
      "lstrip": false,
      "rstrip": false,
      "normalized": false,
      "special": true
    },
    {
      "id": 462,
      "content": "City_444",
      "single_word": false,
      "lstrip": false,
      "rstrip": false,
      "normalized": false,
      "special": true
    },
    {
      "id": 463,
      "content": "City_445",
      "single_word": false,
      "lstrip": false,
      "rstrip": false,
      "normalized": false,
      "special": true
    },
    {
      "id": 464,
      "content": "City_446",
      "single_word": false,
      "lstrip": false,
      "rstrip": false,
      "normalized": false,
      "special": true
    },
    {
      "id": 465,
      "content": "City_447",
      "single_word": false,
      "lstrip": false,
      "rstrip": false,
      "normalized": false,
      "special": true
    },
    {
      "id": 466,
      "content": "City_448",
      "single_word": false,
      "lstrip": false,
      "rstrip": false,
      "normalized": false,
      "special": true
    },
    {
      "id": 467,
      "content": "City_449",
      "single_word": false,
      "lstrip": false,
      "rstrip": false,
      "normalized": false,
      "special": true
    },
    {
      "id": 468,
      "content": "City_450",
      "single_word": false,
      "lstrip": false,
      "rstrip": false,
      "normalized": false,
      "special": true
    },
    {
      "id": 469,
      "content": "City_451",
      "single_word": false,
      "lstrip": false,
      "rstrip": false,
      "normalized": false,
      "special": true
    },
    {
      "id": 470,
      "content": "City_452",
      "single_word": false,
      "lstrip": false,
      "rstrip": false,
      "normalized": false,
      "special": true
    },
    {
      "id": 471,
      "content": "City_453",
      "single_word": false,
      "lstrip": false,
      "rstrip": false,
      "normalized": false,
      "special": true
    },
    {
      "id": 472,
      "content": "City_454",
      "single_word": false,
      "lstrip": false,
      "rstrip": false,
      "normalized": false,
      "special": true
    },
    {
      "id": 473,
      "content": "City_455",
      "single_word": false,
      "lstrip": false,
      "rstrip": false,
      "normalized": false,
      "special": true
    },
    {
      "id": 474,
      "content": "City_456",
      "single_word": false,
      "lstrip": false,
      "rstrip": false,
      "normalized": false,
      "special": true
    },
    {
      "id": 475,
      "content": "City_457",
      "single_word": false,
      "lstrip": false,
      "rstrip": false,
      "normalized": false,
      "special": true
    },
    {
      "id": 476,
      "content": "City_458",
      "single_word": false,
      "lstrip": false,
      "rstrip": false,
      "normalized": false,
      "special": true
    },
    {
      "id": 477,
      "content": "City_459",
      "single_word": false,
      "lstrip": false,
      "rstrip": false,
      "normalized": false,
      "special": true
    },
    {
      "id": 478,
      "content": "City_460",
      "single_word": false,
      "lstrip": false,
      "rstrip": false,
      "normalized": false,
      "special": true
    },
    {
      "id": 479,
      "content": "City_461",
      "single_word": false,
      "lstrip": false,
      "rstrip": false,
      "normalized": false,
      "special": true
    },
    {
      "id": 480,
      "content": "City_462",
      "single_word": false,
      "lstrip": false,
      "rstrip": false,
      "normalized": false,
      "special": true
    },
    {
      "id": 481,
      "content": "City_463",
      "single_word": false,
      "lstrip": false,
      "rstrip": false,
      "normalized": false,
      "special": true
    },
    {
      "id": 482,
      "content": "City_464",
      "single_word": false,
      "lstrip": false,
      "rstrip": false,
      "normalized": false,
      "special": true
    },
    {
      "id": 483,
      "content": "City_465",
      "single_word": false,
      "lstrip": false,
      "rstrip": false,
      "normalized": false,
      "special": true
    },
    {
      "id": 484,
      "content": "City_466",
      "single_word": false,
      "lstrip": false,
      "rstrip": false,
      "normalized": false,
      "special": true
    },
    {
      "id": 485,
      "content": "City_467",
      "single_word": false,
      "lstrip": false,
      "rstrip": false,
      "normalized": false,
      "special": true
    },
    {
      "id": 486,
      "content": "City_468",
      "single_word": false,
      "lstrip": false,
      "rstrip": false,
      "normalized": false,
      "special": true
    },
    {
      "id": 487,
      "content": "City_469",
      "single_word": false,
      "lstrip": false,
      "rstrip": false,
      "normalized": false,
      "special": true
    },
    {
      "id": 488,
      "content": "City_470",
      "single_word": false,
      "lstrip": false,
      "rstrip": false,
      "normalized": false,
      "special": true
    },
    {
      "id": 489,
      "content": "City_471",
      "single_word": false,
      "lstrip": false,
      "rstrip": false,
      "normalized": false,
      "special": true
    },
    {
      "id": 490,
      "content": "City_472",
      "single_word": false,
      "lstrip": false,
      "rstrip": false,
      "normalized": false,
      "special": true
    },
    {
      "id": 491,
      "content": "City_473",
      "single_word": false,
      "lstrip": false,
      "rstrip": false,
      "normalized": false,
      "special": true
    },
    {
      "id": 492,
      "content": "City_474",
      "single_word": false,
      "lstrip": false,
      "rstrip": false,
      "normalized": false,
      "special": true
    },
    {
      "id": 493,
      "content": "City_475",
      "single_word": false,
      "lstrip": false,
      "rstrip": false,
      "normalized": false,
      "special": true
    },
    {
      "id": 494,
      "content": "City_476",
      "single_word": false,
      "lstrip": false,
      "rstrip": false,
      "normalized": false,
      "special": true
    },
    {
      "id": 495,
      "content": "City_477",
      "single_word": false,
      "lstrip": false,
      "rstrip": false,
      "normalized": false,
      "special": true
    },
    {
      "id": 496,
      "content": "City_478",
      "single_word": false,
      "lstrip": false,
      "rstrip": false,
      "normalized": false,
      "special": true
    },
    {
      "id": 497,
      "content": "City_479",
      "single_word": false,
      "lstrip": false,
      "rstrip": false,
      "normalized": false,
      "special": true
    },
    {
      "id": 498,
      "content": "City_480",
      "single_word": false,
      "lstrip": false,
      "rstrip": false,
      "normalized": false,
      "special": true
    },
    {
      "id": 499,
      "content": "City_481",
      "single_word": false,
      "lstrip": false,
      "rstrip": false,
      "normalized": false,
      "special": true
    },
    {
      "id": 500,
      "content": "City_482",
      "single_word": false,
      "lstrip": false,
      "rstrip": false,
      "normalized": false,
      "special": true
    },
    {
      "id": 501,
      "content": "City_483",
      "single_word": false,
      "lstrip": false,
      "rstrip": false,
      "normalized": false,
      "special": true
    },
    {
      "id": 502,
      "content": "City_484",
      "single_word": false,
      "lstrip": false,
      "rstrip": false,
      "normalized": false,
      "special": true
    },
    {
      "id": 503,
      "content": "City_485",
      "single_word": false,
      "lstrip": false,
      "rstrip": false,
      "normalized": false,
      "special": true
    },
    {
      "id": 504,
      "content": "City_486",
      "single_word": false,
      "lstrip": false,
      "rstrip": false,
      "normalized": false,
      "special": true
    },
    {
      "id": 505,
      "content": "City_487",
      "single_word": false,
      "lstrip": false,
      "rstrip": false,
      "normalized": false,
      "special": true
    },
    {
      "id": 506,
      "content": "City_488",
      "single_word": false,
      "lstrip": false,
      "rstrip": false,
      "normalized": false,
      "special": true
    },
    {
      "id": 507,
      "content": "City_489",
      "single_word": false,
      "lstrip": false,
      "rstrip": false,
      "normalized": false,
      "special": true
    },
    {
      "id": 508,
      "content": "City_490",
      "single_word": false,
      "lstrip": false,
      "rstrip": false,
      "normalized": false,
      "special": true
    },
    {
      "id": 509,
      "content": "City_491",
      "single_word": false,
      "lstrip": false,
      "rstrip": false,
      "normalized": false,
      "special": true
    },
    {
      "id": 510,
      "content": "City_492",
      "single_word": false,
      "lstrip": false,
      "rstrip": false,
      "normalized": false,
      "special": true
    },
    {
      "id": 511,
      "content": "City_493",
      "single_word": false,
      "lstrip": false,
      "rstrip": false,
      "normalized": false,
      "special": true
    },
    {
      "id": 512,
      "content": "City_494",
      "single_word": false,
      "lstrip": false,
      "rstrip": false,
      "normalized": false,
      "special": true
    },
    {
      "id": 513,
      "content": "City_495",
      "single_word": false,
      "lstrip": false,
      "rstrip": false,
      "normalized": false,
      "special": true
    },
    {
      "id": 514,
      "content": "City_496",
      "single_word": false,
      "lstrip": false,
      "rstrip": false,
      "normalized": false,
      "special": true
    },
    {
      "id": 515,
      "content": "City_497",
      "single_word": false,
      "lstrip": false,
      "rstrip": false,
      "normalized": false,
      "special": true
    },
    {
      "id": 516,
      "content": "City_498",
      "single_word": false,
      "lstrip": false,
      "rstrip": false,
      "normalized": false,
      "special": true
    },
    {
      "id": 517,
      "content": "City_499",
      "single_word": false,
      "lstrip": false,
      "rstrip": false,
      "normalized": false,
      "special": true
    },
    {
      "id": 518,
      "content": "City_500",
      "single_word": false,
      "lstrip": false,
      "rstrip": false,
      "normalized": false,
      "special": true
    },
    {
      "id": 519,
      "content": "City_501",
      "single_word": false,
      "lstrip": false,
      "rstrip": false,
      "normalized": false,
      "special": true
    },
    {
      "id": 520,
      "content": "City_502",
      "single_word": false,
      "lstrip": false,
      "rstrip": false,
      "normalized": false,
      "special": true
    },
    {
      "id": 521,
      "content": "City_503",
      "single_word": false,
      "lstrip": false,
      "rstrip": false,
      "normalized": false,
      "special": true
    },
    {
      "id": 522,
      "content": "City_504",
      "single_word": false,
      "lstrip": false,
      "rstrip": false,
      "normalized": false,
      "special": true
    },
    {
      "id": 523,
      "content": "City_505",
      "single_word": false,
      "lstrip": false,
      "rstrip": false,
      "normalized": false,
      "special": true
    },
    {
      "id": 524,
      "content": "City_506",
      "single_word": false,
      "lstrip": false,
      "rstrip": false,
      "normalized": false,
      "special": true
    },
    {
      "id": 525,
      "content": "City_507",
      "single_word": false,
      "lstrip": false,
      "rstrip": false,
      "normalized": false,
      "special": true
    },
    {
      "id": 526,
      "content": "City_508",
      "single_word": false,
      "lstrip": false,
      "rstrip": false,
      "normalized": false,
      "special": true
    },
    {
      "id": 527,
      "content": "City_509",
      "single_word": false,
      "lstrip": false,
      "rstrip": false,
      "normalized": false,
      "special": true
    },
    {
      "id": 528,
      "content": "City_510",
      "single_word": false,
      "lstrip": false,
      "rstrip": false,
      "normalized": false,
      "special": true
    },
    {
      "id": 529,
      "content": "City_511",
      "single_word": false,
      "lstrip": false,
      "rstrip": false,
      "normalized": false,
      "special": true
    },
    {
      "id": 530,
      "content": "City_512",
      "single_word": false,
      "lstrip": false,
      "rstrip": false,
      "normalized": false,
      "special": true
    },
    {
      "id": 531,
      "content": "City_513",
      "single_word": false,
      "lstrip": false,
      "rstrip": false,
      "normalized": false,
      "special": true
    },
    {
      "id": 532,
      "content": "City_514",
      "single_word": false,
      "lstrip": false,
      "rstrip": false,
      "normalized": false,
      "special": true
    },
    {
      "id": 533,
      "content": "City_515",
      "single_word": false,
      "lstrip": false,
      "rstrip": false,
      "normalized": false,
      "special": true
    },
    {
      "id": 534,
      "content": "City_516",
      "single_word": false,
      "lstrip": false,
      "rstrip": false,
      "normalized": false,
      "special": true
    },
    {
      "id": 535,
      "content": "City_517",
      "single_word": false,
      "lstrip": false,
      "rstrip": false,
      "normalized": false,
      "special": true
    },
    {
      "id": 536,
      "content": "City_518",
      "single_word": false,
      "lstrip": false,
      "rstrip": false,
      "normalized": false,
      "special": true
    },
    {
      "id": 537,
      "content": "City_519",
      "single_word": false,
      "lstrip": false,
      "rstrip": false,
      "normalized": false,
      "special": true
    },
    {
      "id": 538,
      "content": "City_520",
      "single_word": false,
      "lstrip": false,
      "rstrip": false,
      "normalized": false,
      "special": true
    },
    {
      "id": 539,
      "content": "City_521",
      "single_word": false,
      "lstrip": false,
      "rstrip": false,
      "normalized": false,
      "special": true
    },
    {
      "id": 540,
      "content": "City_522",
      "single_word": false,
      "lstrip": false,
      "rstrip": false,
      "normalized": false,
      "special": true
    },
    {
      "id": 541,
      "content": "City_523",
      "single_word": false,
      "lstrip": false,
      "rstrip": false,
      "normalized": false,
      "special": true
    },
    {
      "id": 542,
      "content": "City_524",
      "single_word": false,
      "lstrip": false,
      "rstrip": false,
      "normalized": false,
      "special": true
    },
    {
      "id": 543,
      "content": "City_525",
      "single_word": false,
      "lstrip": false,
      "rstrip": false,
      "normalized": false,
      "special": true
    },
    {
      "id": 544,
      "content": "City_526",
      "single_word": false,
      "lstrip": false,
      "rstrip": false,
      "normalized": false,
      "special": true
    },
    {
      "id": 545,
      "content": "City_527",
      "single_word": false,
      "lstrip": false,
      "rstrip": false,
      "normalized": false,
      "special": true
    },
    {
      "id": 546,
      "content": "City_528",
      "single_word": false,
      "lstrip": false,
      "rstrip": false,
      "normalized": false,
      "special": true
    },
    {
      "id": 547,
      "content": "City_529",
      "single_word": false,
      "lstrip": false,
      "rstrip": false,
      "normalized": false,
      "special": true
    },
    {
      "id": 548,
      "content": "City_530",
      "single_word": false,
      "lstrip": false,
      "rstrip": false,
      "normalized": false,
      "special": true
    },
    {
      "id": 549,
      "content": "City_531",
      "single_word": false,
      "lstrip": false,
      "rstrip": false,
      "normalized": false,
      "special": true
    },
    {
      "id": 550,
      "content": "City_532",
      "single_word": false,
      "lstrip": false,
      "rstrip": false,
      "normalized": false,
      "special": true
    },
    {
      "id": 551,
      "content": "City_533",
      "single_word": false,
      "lstrip": false,
      "rstrip": false,
      "normalized": false,
      "special": true
    },
    {
      "id": 552,
      "content": "City_534",
      "single_word": false,
      "lstrip": false,
      "rstrip": false,
      "normalized": false,
      "special": true
    },
    {
      "id": 553,
      "content": "City_535",
      "single_word": false,
      "lstrip": false,
      "rstrip": false,
      "normalized": false,
      "special": true
    },
    {
      "id": 554,
      "content": "City_536",
      "single_word": false,
      "lstrip": false,
      "rstrip": false,
      "normalized": false,
      "special": true
    },
    {
      "id": 555,
      "content": "City_537",
      "single_word": false,
      "lstrip": false,
      "rstrip": false,
      "normalized": false,
      "special": true
    },
    {
      "id": 556,
      "content": "City_538",
      "single_word": false,
      "lstrip": false,
      "rstrip": false,
      "normalized": false,
      "special": true
    },
    {
      "id": 557,
      "content": "City_539",
      "single_word": false,
      "lstrip": false,
      "rstrip": false,
      "normalized": false,
      "special": true
    },
    {
      "id": 558,
      "content": "City_540",
      "single_word": false,
      "lstrip": false,
      "rstrip": false,
      "normalized": false,
      "special": true
    },
    {
      "id": 559,
      "content": "City_541",
      "single_word": false,
      "lstrip": false,
      "rstrip": false,
      "normalized": false,
      "special": true
    },
    {
      "id": 560,
      "content": "City_542",
      "single_word": false,
      "lstrip": false,
      "rstrip": false,
      "normalized": false,
      "special": true
    },
    {
      "id": 561,
      "content": "City_543",
      "single_word": false,
      "lstrip": false,
      "rstrip": false,
      "normalized": false,
      "special": true
    },
    {
      "id": 562,
      "content": "City_544",
      "single_word": false,
      "lstrip": false,
      "rstrip": false,
      "normalized": false,
      "special": true
    },
    {
      "id": 563,
      "content": "City_545",
      "single_word": false,
      "lstrip": false,
      "rstrip": false,
      "normalized": false,
      "special": true
    },
    {
      "id": 564,
      "content": "City_546",
      "single_word": false,
      "lstrip": false,
      "rstrip": false,
      "normalized": false,
      "special": true
    },
    {
      "id": 565,
      "content": "City_547",
      "single_word": false,
      "lstrip": false,
      "rstrip": false,
      "normalized": false,
      "special": true
    },
    {
      "id": 566,
      "content": "City_548",
      "single_word": false,
      "lstrip": false,
      "rstrip": false,
      "normalized": false,
      "special": true
    },
    {
      "id": 567,
      "content": "City_549",
      "single_word": false,
      "lstrip": false,
      "rstrip": false,
      "normalized": false,
      "special": true
    },
    {
      "id": 568,
      "content": "City_550",
      "single_word": false,
      "lstrip": false,
      "rstrip": false,
      "normalized": false,
      "special": true
    },
    {
      "id": 569,
      "content": "City_551",
      "single_word": false,
      "lstrip": false,
      "rstrip": false,
      "normalized": false,
      "special": true
    },
    {
      "id": 570,
      "content": "City_552",
      "single_word": false,
      "lstrip": false,
      "rstrip": false,
      "normalized": false,
      "special": true
    },
    {
      "id": 571,
      "content": "City_553",
      "single_word": false,
      "lstrip": false,
      "rstrip": false,
      "normalized": false,
      "special": true
    },
    {
      "id": 572,
      "content": "City_554",
      "single_word": false,
      "lstrip": false,
      "rstrip": false,
      "normalized": false,
      "special": true
    },
    {
      "id": 573,
      "content": "City_555",
      "single_word": false,
      "lstrip": false,
      "rstrip": false,
      "normalized": false,
      "special": true
    },
    {
      "id": 574,
      "content": "City_556",
      "single_word": false,
      "lstrip": false,
      "rstrip": false,
      "normalized": false,
      "special": true
    },
    {
      "id": 575,
      "content": "City_557",
      "single_word": false,
      "lstrip": false,
      "rstrip": false,
      "normalized": false,
      "special": true
    },
    {
      "id": 576,
      "content": "City_558",
      "single_word": false,
      "lstrip": false,
      "rstrip": false,
      "normalized": false,
      "special": true
    },
    {
      "id": 577,
      "content": "City_559",
      "single_word": false,
      "lstrip": false,
      "rstrip": false,
      "normalized": false,
      "special": true
    },
    {
      "id": 578,
      "content": "City_560",
      "single_word": false,
      "lstrip": false,
      "rstrip": false,
      "normalized": false,
      "special": true
    },
    {
      "id": 579,
      "content": "City_561",
      "single_word": false,
      "lstrip": false,
      "rstrip": false,
      "normalized": false,
      "special": true
    },
    {
      "id": 580,
      "content": "City_562",
      "single_word": false,
      "lstrip": false,
      "rstrip": false,
      "normalized": false,
      "special": true
    },
    {
      "id": 581,
      "content": "City_563",
      "single_word": false,
      "lstrip": false,
      "rstrip": false,
      "normalized": false,
      "special": true
    },
    {
      "id": 582,
      "content": "City_564",
      "single_word": false,
      "lstrip": false,
      "rstrip": false,
      "normalized": false,
      "special": true
    },
    {
      "id": 583,
      "content": "City_565",
      "single_word": false,
      "lstrip": false,
      "rstrip": false,
      "normalized": false,
      "special": true
    },
    {
      "id": 584,
      "content": "City_566",
      "single_word": false,
      "lstrip": false,
      "rstrip": false,
      "normalized": false,
      "special": true
    },
    {
      "id": 585,
      "content": "City_567",
      "single_word": false,
      "lstrip": false,
      "rstrip": false,
      "normalized": false,
      "special": true
    },
    {
      "id": 586,
      "content": "City_568",
      "single_word": false,
      "lstrip": false,
      "rstrip": false,
      "normalized": false,
      "special": true
    },
    {
      "id": 587,
      "content": "City_569",
      "single_word": false,
      "lstrip": false,
      "rstrip": false,
      "normalized": false,
      "special": true
    },
    {
      "id": 588,
      "content": "City_570",
      "single_word": false,
      "lstrip": false,
      "rstrip": false,
      "normalized": false,
      "special": true
    },
    {
      "id": 589,
      "content": "City_571",
      "single_word": false,
      "lstrip": false,
      "rstrip": false,
      "normalized": false,
      "special": true
    },
    {
      "id": 590,
      "content": "City_572",
      "single_word": false,
      "lstrip": false,
      "rstrip": false,
      "normalized": false,
      "special": true
    },
    {
      "id": 591,
      "content": "City_573",
      "single_word": false,
      "lstrip": false,
      "rstrip": false,
      "normalized": false,
      "special": true
    },
    {
      "id": 592,
      "content": "City_574",
      "single_word": false,
      "lstrip": false,
      "rstrip": false,
      "normalized": false,
      "special": true
    },
    {
      "id": 593,
      "content": "City_575",
      "single_word": false,
      "lstrip": false,
      "rstrip": false,
      "normalized": false,
      "special": true
    },
    {
      "id": 594,
      "content": "City_576",
      "single_word": false,
      "lstrip": false,
      "rstrip": false,
      "normalized": false,
      "special": true
    },
    {
      "id": 595,
      "content": "City_577",
      "single_word": false,
      "lstrip": false,
      "rstrip": false,
      "normalized": false,
      "special": true
    },
    {
      "id": 596,
      "content": "City_578",
      "single_word": false,
      "lstrip": false,
      "rstrip": false,
      "normalized": false,
      "special": true
    },
    {
      "id": 597,
      "content": "City_579",
      "single_word": false,
      "lstrip": false,
      "rstrip": false,
      "normalized": false,
      "special": true
    },
    {
      "id": 598,
      "content": "City_580",
      "single_word": false,
      "lstrip": false,
      "rstrip": false,
      "normalized": false,
      "special": true
    },
    {
      "id": 599,
      "content": "City_581",
      "single_word": false,
      "lstrip": false,
      "rstrip": false,
      "normalized": false,
      "special": true
    },
    {
      "id": 600,
      "content": "City_582",
      "single_word": false,
      "lstrip": false,
      "rstrip": false,
      "normalized": false,
      "special": true
    },
    {
      "id": 601,
      "content": "City_583",
      "single_word": false,
      "lstrip": false,
      "rstrip": false,
      "normalized": false,
      "special": true
    },
    {
      "id": 602,
      "content": "City_584",
      "single_word": false,
      "lstrip": false,
      "rstrip": false,
      "normalized": false,
      "special": true
    },
    {
      "id": 603,
      "content": "City_585",
      "single_word": false,
      "lstrip": false,
      "rstrip": false,
      "normalized": false,
      "special": true
    },
    {
      "id": 604,
      "content": "City_586",
      "single_word": false,
      "lstrip": false,
      "rstrip": false,
      "normalized": false,
      "special": true
    },
    {
      "id": 605,
      "content": "City_587",
      "single_word": false,
      "lstrip": false,
      "rstrip": false,
      "normalized": false,
      "special": true
    },
    {
      "id": 606,
      "content": "City_588",
      "single_word": false,
      "lstrip": false,
      "rstrip": false,
      "normalized": false,
      "special": true
    },
    {
      "id": 607,
      "content": "City_589",
      "single_word": false,
      "lstrip": false,
      "rstrip": false,
      "normalized": false,
      "special": true
    },
    {
      "id": 608,
      "content": "City_590",
      "single_word": false,
      "lstrip": false,
      "rstrip": false,
      "normalized": false,
      "special": true
    },
    {
      "id": 609,
      "content": "City_591",
      "single_word": false,
      "lstrip": false,
      "rstrip": false,
      "normalized": false,
      "special": true
    },
    {
      "id": 610,
      "content": "City_592",
      "single_word": false,
      "lstrip": false,
      "rstrip": false,
      "normalized": false,
      "special": true
    },
    {
      "id": 611,
      "content": "City_593",
      "single_word": false,
      "lstrip": false,
      "rstrip": false,
      "normalized": false,
      "special": true
    },
    {
      "id": 612,
      "content": "City_594",
      "single_word": false,
      "lstrip": false,
      "rstrip": false,
      "normalized": false,
      "special": true
    },
    {
      "id": 613,
      "content": "City_595",
      "single_word": false,
      "lstrip": false,
      "rstrip": false,
      "normalized": false,
      "special": true
    },
    {
      "id": 614,
      "content": "City_596",
      "single_word": false,
      "lstrip": false,
      "rstrip": false,
      "normalized": false,
      "special": true
    },
    {
      "id": 615,
      "content": "City_597",
      "single_word": false,
      "lstrip": false,
      "rstrip": false,
      "normalized": false,
      "special": true
    },
    {
      "id": 616,
      "content": "City_598",
      "single_word": false,
      "lstrip": false,
      "rstrip": false,
      "normalized": false,
      "special": true
    },
    {
      "id": 617,
      "content": "City_599",
      "single_word": false,
      "lstrip": false,
      "rstrip": false,
      "normalized": false,
      "special": true
    },
    {
      "id": 618,
      "content": "City_600",
      "single_word": false,
      "lstrip": false,
      "rstrip": false,
      "normalized": false,
      "special": true
    },
    {
      "id": 619,
      "content": "City_601",
      "single_word": false,
      "lstrip": false,
      "rstrip": false,
      "normalized": false,
      "special": true
    },
    {
      "id": 620,
      "content": "City_602",
      "single_word": false,
      "lstrip": false,
      "rstrip": false,
      "normalized": false,
      "special": true
    },
    {
      "id": 621,
      "content": "City_603",
      "single_word": false,
      "lstrip": false,
      "rstrip": false,
      "normalized": false,
      "special": true
    },
    {
      "id": 622,
      "content": "City_604",
      "single_word": false,
      "lstrip": false,
      "rstrip": false,
      "normalized": false,
      "special": true
    },
    {
      "id": 623,
      "content": "City_605",
      "single_word": false,
      "lstrip": false,
      "rstrip": false,
      "normalized": false,
      "special": true
    },
    {
      "id": 624,
      "content": "City_606",
      "single_word": false,
      "lstrip": false,
      "rstrip": false,
      "normalized": false,
      "special": true
    },
    {
      "id": 625,
      "content": "City_607",
      "single_word": false,
      "lstrip": false,
      "rstrip": false,
      "normalized": false,
      "special": true
    },
    {
      "id": 626,
      "content": "City_608",
      "single_word": false,
      "lstrip": false,
      "rstrip": false,
      "normalized": false,
      "special": true
    },
    {
      "id": 627,
      "content": "City_609",
      "single_word": false,
      "lstrip": false,
      "rstrip": false,
      "normalized": false,
      "special": true
    },
    {
      "id": 628,
      "content": "City_610",
      "single_word": false,
      "lstrip": false,
      "rstrip": false,
      "normalized": false,
      "special": true
    },
    {
      "id": 629,
      "content": "City_611",
      "single_word": false,
      "lstrip": false,
      "rstrip": false,
      "normalized": false,
      "special": true
    },
    {
      "id": 630,
      "content": "City_612",
      "single_word": false,
      "lstrip": false,
      "rstrip": false,
      "normalized": false,
      "special": true
    },
    {
      "id": 631,
      "content": "City_613",
      "single_word": false,
      "lstrip": false,
      "rstrip": false,
      "normalized": false,
      "special": true
    },
    {
      "id": 632,
      "content": "City_614",
      "single_word": false,
      "lstrip": false,
      "rstrip": false,
      "normalized": false,
      "special": true
    },
    {
      "id": 633,
      "content": "City_615",
      "single_word": false,
      "lstrip": false,
      "rstrip": false,
      "normalized": false,
      "special": true
    },
    {
      "id": 634,
      "content": "City_616",
      "single_word": false,
      "lstrip": false,
      "rstrip": false,
      "normalized": false,
      "special": true
    },
    {
      "id": 635,
      "content": "City_617",
      "single_word": false,
      "lstrip": false,
      "rstrip": false,
      "normalized": false,
      "special": true
    },
    {
      "id": 636,
      "content": "City_618",
      "single_word": false,
      "lstrip": false,
      "rstrip": false,
      "normalized": false,
      "special": true
    },
    {
      "id": 637,
      "content": "City_619",
      "single_word": false,
      "lstrip": false,
      "rstrip": false,
      "normalized": false,
      "special": true
    },
    {
      "id": 638,
      "content": "City_620",
      "single_word": false,
      "lstrip": false,
      "rstrip": false,
      "normalized": false,
      "special": true
    },
    {
      "id": 639,
      "content": "City_621",
      "single_word": false,
      "lstrip": false,
      "rstrip": false,
      "normalized": false,
      "special": true
    },
    {
      "id": 640,
      "content": "City_622",
      "single_word": false,
      "lstrip": false,
      "rstrip": false,
      "normalized": false,
      "special": true
    },
    {
      "id": 641,
      "content": "City_623",
      "single_word": false,
      "lstrip": false,
      "rstrip": false,
      "normalized": false,
      "special": true
    },
    {
      "id": 642,
      "content": "City_624",
      "single_word": false,
      "lstrip": false,
      "rstrip": false,
      "normalized": false,
      "special": true
    },
    {
      "id": 643,
      "content": "City_625",
      "single_word": false,
      "lstrip": false,
      "rstrip": false,
      "normalized": false,
      "special": true
    },
    {
      "id": 644,
      "content": "City_626",
      "single_word": false,
      "lstrip": false,
      "rstrip": false,
      "normalized": false,
      "special": true
    },
    {
      "id": 645,
      "content": "City_627",
      "single_word": false,
      "lstrip": false,
      "rstrip": false,
      "normalized": false,
      "special": true
    },
    {
      "id": 646,
      "content": "City_628",
      "single_word": false,
      "lstrip": false,
      "rstrip": false,
      "normalized": false,
      "special": true
    },
    {
      "id": 647,
      "content": "City_629",
      "single_word": false,
      "lstrip": false,
      "rstrip": false,
      "normalized": false,
      "special": true
    },
    {
      "id": 648,
      "content": "City_630",
      "single_word": false,
      "lstrip": false,
      "rstrip": false,
      "normalized": false,
      "special": true
    },
    {
      "id": 649,
      "content": "City_631",
      "single_word": false,
      "lstrip": false,
      "rstrip": false,
      "normalized": false,
      "special": true
    },
    {
      "id": 650,
      "content": "City_632",
      "single_word": false,
      "lstrip": false,
      "rstrip": false,
      "normalized": false,
      "special": true
    },
    {
      "id": 651,
      "content": "City_633",
      "single_word": false,
      "lstrip": false,
      "rstrip": false,
      "normalized": false,
      "special": true
    },
    {
      "id": 652,
      "content": "City_634",
      "single_word": false,
      "lstrip": false,
      "rstrip": false,
      "normalized": false,
      "special": true
    },
    {
      "id": 653,
      "content": "City_635",
      "single_word": false,
      "lstrip": false,
      "rstrip": false,
      "normalized": false,
      "special": true
    },
    {
      "id": 654,
      "content": "City_636",
      "single_word": false,
      "lstrip": false,
      "rstrip": false,
      "normalized": false,
      "special": true
    },
    {
      "id": 655,
      "content": "City_637",
      "single_word": false,
      "lstrip": false,
      "rstrip": false,
      "normalized": false,
      "special": true
    },
    {
      "id": 656,
      "content": "City_638",
      "single_word": false,
      "lstrip": false,
      "rstrip": false,
      "normalized": false,
      "special": true
    },
    {
      "id": 657,
      "content": "City_639",
      "single_word": false,
      "lstrip": false,
      "rstrip": false,
      "normalized": false,
      "special": true
    },
    {
      "id": 658,
      "content": "City_640",
      "single_word": false,
      "lstrip": false,
      "rstrip": false,
      "normalized": false,
      "special": true
    },
    {
      "id": 659,
      "content": "City_641",
      "single_word": false,
      "lstrip": false,
      "rstrip": false,
      "normalized": false,
      "special": true
    },
    {
      "id": 660,
      "content": "City_642",
      "single_word": false,
      "lstrip": false,
      "rstrip": false,
      "normalized": false,
      "special": true
    },
    {
      "id": 661,
      "content": "City_643",
      "single_word": false,
      "lstrip": false,
      "rstrip": false,
      "normalized": false,
      "special": true
    },
    {
      "id": 662,
      "content": "City_644",
      "single_word": false,
      "lstrip": false,
      "rstrip": false,
      "normalized": false,
      "special": true
    },
    {
      "id": 663,
      "content": "City_645",
      "single_word": false,
      "lstrip": false,
      "rstrip": false,
      "normalized": false,
      "special": true
    },
    {
      "id": 664,
      "content": "City_646",
      "single_word": false,
      "lstrip": false,
      "rstrip": false,
      "normalized": false,
      "special": true
    },
    {
      "id": 665,
      "content": "City_647",
      "single_word": false,
      "lstrip": false,
      "rstrip": false,
      "normalized": false,
      "special": true
    },
    {
      "id": 666,
      "content": "City_648",
      "single_word": false,
      "lstrip": false,
      "rstrip": false,
      "normalized": false,
      "special": true
    },
    {
      "id": 667,
      "content": "City_649",
      "single_word": false,
      "lstrip": false,
      "rstrip": false,
      "normalized": false,
      "special": true
    },
    {
      "id": 668,
      "content": "City_650",
      "single_word": false,
      "lstrip": false,
      "rstrip": false,
      "normalized": false,
      "special": true
    },
    {
      "id": 669,
      "content": "City_651",
      "single_word": false,
      "lstrip": false,
      "rstrip": false,
      "normalized": false,
      "special": true
    },
    {
      "id": 670,
      "content": "City_652",
      "single_word": false,
      "lstrip": false,
      "rstrip": false,
      "normalized": false,
      "special": true
    },
    {
      "id": 671,
      "content": "City_653",
      "single_word": false,
      "lstrip": false,
      "rstrip": false,
      "normalized": false,
      "special": true
    },
    {
      "id": 672,
      "content": "City_654",
      "single_word": false,
      "lstrip": false,
      "rstrip": false,
      "normalized": false,
      "special": true
    },
    {
      "id": 673,
      "content": "City_655",
      "single_word": false,
      "lstrip": false,
      "rstrip": false,
      "normalized": false,
      "special": true
    },
    {
      "id": 674,
      "content": "City_656",
      "single_word": false,
      "lstrip": false,
      "rstrip": false,
      "normalized": false,
      "special": true
    },
    {
      "id": 675,
      "content": "City_657",
      "single_word": false,
      "lstrip": false,
      "rstrip": false,
      "normalized": false,
      "special": true
    },
    {
      "id": 676,
      "content": "City_658",
      "single_word": false,
      "lstrip": false,
      "rstrip": false,
      "normalized": false,
      "special": true
    },
    {
      "id": 677,
      "content": "City_659",
      "single_word": false,
      "lstrip": false,
      "rstrip": false,
      "normalized": false,
      "special": true
    },
    {
      "id": 678,
      "content": "City_660",
      "single_word": false,
      "lstrip": false,
      "rstrip": false,
      "normalized": false,
      "special": true
    },
    {
      "id": 679,
      "content": "City_661",
      "single_word": false,
      "lstrip": false,
      "rstrip": false,
      "normalized": false,
      "special": true
    },
    {
      "id": 680,
      "content": "City_662",
      "single_word": false,
      "lstrip": false,
      "rstrip": false,
      "normalized": false,
      "special": true
    },
    {
      "id": 681,
      "content": "City_663",
      "single_word": false,
      "lstrip": false,
      "rstrip": false,
      "normalized": false,
      "special": true
    },
    {
      "id": 682,
      "content": "City_664",
      "single_word": false,
      "lstrip": false,
      "rstrip": false,
      "normalized": false,
      "special": true
    },
    {
      "id": 683,
      "content": "City_665",
      "single_word": false,
      "lstrip": false,
      "rstrip": false,
      "normalized": false,
      "special": true
    },
    {
      "id": 684,
      "content": "City_666",
      "single_word": false,
      "lstrip": false,
      "rstrip": false,
      "normalized": false,
      "special": true
    },
    {
      "id": 685,
      "content": "City_667",
      "single_word": false,
      "lstrip": false,
      "rstrip": false,
      "normalized": false,
      "special": true
    },
    {
      "id": 686,
      "content": "City_668",
      "single_word": false,
      "lstrip": false,
      "rstrip": false,
      "normalized": false,
      "special": true
    },
    {
      "id": 687,
      "content": "City_669",
      "single_word": false,
      "lstrip": false,
      "rstrip": false,
      "normalized": false,
      "special": true
    },
    {
      "id": 688,
      "content": "City_670",
      "single_word": false,
      "lstrip": false,
      "rstrip": false,
      "normalized": false,
      "special": true
    },
    {
      "id": 689,
      "content": "City_671",
      "single_word": false,
      "lstrip": false,
      "rstrip": false,
      "normalized": false,
      "special": true
    },
    {
      "id": 690,
      "content": "City_672",
      "single_word": false,
      "lstrip": false,
      "rstrip": false,
      "normalized": false,
      "special": true
    },
    {
      "id": 691,
      "content": "City_673",
      "single_word": false,
      "lstrip": false,
      "rstrip": false,
      "normalized": false,
      "special": true
    },
    {
      "id": 692,
      "content": "City_674",
      "single_word": false,
      "lstrip": false,
      "rstrip": false,
      "normalized": false,
      "special": true
    },
    {
      "id": 693,
      "content": "City_675",
      "single_word": false,
      "lstrip": false,
      "rstrip": false,
      "normalized": false,
      "special": true
    },
    {
      "id": 694,
      "content": "City_676",
      "single_word": false,
      "lstrip": false,
      "rstrip": false,
      "normalized": false,
      "special": true
    },
    {
      "id": 695,
      "content": "City_677",
      "single_word": false,
      "lstrip": false,
      "rstrip": false,
      "normalized": false,
      "special": true
    },
    {
      "id": 696,
      "content": "City_678",
      "single_word": false,
      "lstrip": false,
      "rstrip": false,
      "normalized": false,
      "special": true
    },
    {
      "id": 697,
      "content": "City_679",
      "single_word": false,
      "lstrip": false,
      "rstrip": false,
      "normalized": false,
      "special": true
    },
    {
      "id": 698,
      "content": "City_680",
      "single_word": false,
      "lstrip": false,
      "rstrip": false,
      "normalized": false,
      "special": true
    },
    {
      "id": 699,
      "content": "City_681",
      "single_word": false,
      "lstrip": false,
      "rstrip": false,
      "normalized": false,
      "special": true
    },
    {
      "id": 700,
      "content": "City_682",
      "single_word": false,
      "lstrip": false,
      "rstrip": false,
      "normalized": false,
      "special": true
    },
    {
      "id": 701,
      "content": "City_683",
      "single_word": false,
      "lstrip": false,
      "rstrip": false,
      "normalized": false,
      "special": true
    },
    {
      "id": 702,
      "content": "City_684",
      "single_word": false,
      "lstrip": false,
      "rstrip": false,
      "normalized": false,
      "special": true
    },
    {
      "id": 703,
      "content": "City_685",
      "single_word": false,
      "lstrip": false,
      "rstrip": false,
      "normalized": false,
      "special": true
    },
    {
      "id": 704,
      "content": "City_686",
      "single_word": false,
      "lstrip": false,
      "rstrip": false,
      "normalized": false,
      "special": true
    },
    {
      "id": 705,
      "content": "City_687",
      "single_word": false,
      "lstrip": false,
      "rstrip": false,
      "normalized": false,
      "special": true
    },
    {
      "id": 706,
      "content": "City_688",
      "single_word": false,
      "lstrip": false,
      "rstrip": false,
      "normalized": false,
      "special": true
    },
    {
      "id": 707,
      "content": "City_689",
      "single_word": false,
      "lstrip": false,
      "rstrip": false,
      "normalized": false,
      "special": true
    },
    {
      "id": 708,
      "content": "City_690",
      "single_word": false,
      "lstrip": false,
      "rstrip": false,
      "normalized": false,
      "special": true
    },
    {
      "id": 709,
      "content": "City_691",
      "single_word": false,
      "lstrip": false,
      "rstrip": false,
      "normalized": false,
      "special": true
    },
    {
      "id": 710,
      "content": "City_692",
      "single_word": false,
      "lstrip": false,
      "rstrip": false,
      "normalized": false,
      "special": true
    },
    {
      "id": 711,
      "content": "City_693",
      "single_word": false,
      "lstrip": false,
      "rstrip": false,
      "normalized": false,
      "special": true
    },
    {
      "id": 712,
      "content": "City_694",
      "single_word": false,
      "lstrip": false,
      "rstrip": false,
      "normalized": false,
      "special": true
    },
    {
      "id": 713,
      "content": "City_695",
      "single_word": false,
      "lstrip": false,
      "rstrip": false,
      "normalized": false,
      "special": true
    },
    {
      "id": 714,
      "content": "City_696",
      "single_word": false,
      "lstrip": false,
      "rstrip": false,
      "normalized": false,
      "special": true
    },
    {
      "id": 715,
      "content": "City_697",
      "single_word": false,
      "lstrip": false,
      "rstrip": false,
      "normalized": false,
      "special": true
    },
    {
      "id": 716,
      "content": "City_698",
      "single_word": false,
      "lstrip": false,
      "rstrip": false,
      "normalized": false,
      "special": true
    },
    {
      "id": 717,
      "content": "City_699",
      "single_word": false,
      "lstrip": false,
      "rstrip": false,
      "normalized": false,
      "special": true
    },
    {
      "id": 718,
      "content": "City_700",
      "single_word": false,
      "lstrip": false,
      "rstrip": false,
      "normalized": false,
      "special": true
    },
    {
      "id": 719,
      "content": "City_701",
      "single_word": false,
      "lstrip": false,
      "rstrip": false,
      "normalized": false,
      "special": true
    },
    {
      "id": 720,
      "content": "City_702",
      "single_word": false,
      "lstrip": false,
      "rstrip": false,
      "normalized": false,
      "special": true
    },
    {
      "id": 721,
      "content": "City_703",
      "single_word": false,
      "lstrip": false,
      "rstrip": false,
      "normalized": false,
      "special": true
    },
    {
      "id": 722,
      "content": "City_704",
      "single_word": false,
      "lstrip": false,
      "rstrip": false,
      "normalized": false,
      "special": true
    },
    {
      "id": 723,
      "content": "City_705",
      "single_word": false,
      "lstrip": false,
      "rstrip": false,
      "normalized": false,
      "special": true
    },
    {
      "id": 724,
      "content": "City_706",
      "single_word": false,
      "lstrip": false,
      "rstrip": false,
      "normalized": false,
      "special": true
    },
    {
      "id": 725,
      "content": "City_707",
      "single_word": false,
      "lstrip": false,
      "rstrip": false,
      "normalized": false,
      "special": true
    },
    {
      "id": 726,
      "content": "City_708",
      "single_word": false,
      "lstrip": false,
      "rstrip": false,
      "normalized": false,
      "special": true
    },
    {
      "id": 727,
      "content": "City_709",
      "single_word": false,
      "lstrip": false,
      "rstrip": false,
      "normalized": false,
      "special": true
    },
    {
      "id": 728,
      "content": "City_710",
      "single_word": false,
      "lstrip": false,
      "rstrip": false,
      "normalized": false,
      "special": true
    },
    {
      "id": 729,
      "content": "City_711",
      "single_word": false,
      "lstrip": false,
      "rstrip": false,
      "normalized": false,
      "special": true
    },
    {
      "id": 730,
      "content": "City_712",
      "single_word": false,
      "lstrip": false,
      "rstrip": false,
      "normalized": false,
      "special": true
    },
    {
      "id": 731,
      "content": "City_713",
      "single_word": false,
      "lstrip": false,
      "rstrip": false,
      "normalized": false,
      "special": true
    },
    {
      "id": 732,
      "content": "City_714",
      "single_word": false,
      "lstrip": false,
      "rstrip": false,
      "normalized": false,
      "special": true
    },
    {
      "id": 733,
      "content": "City_715",
      "single_word": false,
      "lstrip": false,
      "rstrip": false,
      "normalized": false,
      "special": true
    },
    {
      "id": 734,
      "content": "City_716",
      "single_word": false,
      "lstrip": false,
      "rstrip": false,
      "normalized": false,
      "special": true
    },
    {
      "id": 735,
      "content": "City_717",
      "single_word": false,
      "lstrip": false,
      "rstrip": false,
      "normalized": false,
      "special": true
    },
    {
      "id": 736,
      "content": "City_718",
      "single_word": false,
      "lstrip": false,
      "rstrip": false,
      "normalized": false,
      "special": true
    },
    {
      "id": 737,
      "content": "City_719",
      "single_word": false,
      "lstrip": false,
      "rstrip": false,
      "normalized": false,
      "special": true
    },
    {
      "id": 738,
      "content": "City_720",
      "single_word": false,
      "lstrip": false,
      "rstrip": false,
      "normalized": false,
      "special": true
    },
    {
      "id": 739,
      "content": "City_721",
      "single_word": false,
      "lstrip": false,
      "rstrip": false,
      "normalized": false,
      "special": true
    },
    {
      "id": 740,
      "content": "City_722",
      "single_word": false,
      "lstrip": false,
      "rstrip": false,
      "normalized": false,
      "special": true
    },
    {
      "id": 741,
      "content": "City_723",
      "single_word": false,
      "lstrip": false,
      "rstrip": false,
      "normalized": false,
      "special": true
    },
    {
      "id": 742,
      "content": "City_724",
      "single_word": false,
      "lstrip": false,
      "rstrip": false,
      "normalized": false,
      "special": true
    },
    {
      "id": 743,
      "content": "City_725",
      "single_word": false,
      "lstrip": false,
      "rstrip": false,
      "normalized": false,
      "special": true
    },
    {
      "id": 744,
      "content": "City_726",
      "single_word": false,
      "lstrip": false,
      "rstrip": false,
      "normalized": false,
      "special": true
    },
    {
      "id": 745,
      "content": "City_727",
      "single_word": false,
      "lstrip": false,
      "rstrip": false,
      "normalized": false,
      "special": true
    },
    {
      "id": 746,
      "content": "City_728",
      "single_word": false,
      "lstrip": false,
      "rstrip": false,
      "normalized": false,
      "special": true
    },
    {
      "id": 747,
      "content": "City_729",
      "single_word": false,
      "lstrip": false,
      "rstrip": false,
      "normalized": false,
      "special": true
    },
    {
      "id": 748,
      "content": "City_730",
      "single_word": false,
      "lstrip": false,
      "rstrip": false,
      "normalized": false,
      "special": true
    },
    {
      "id": 749,
      "content": "City_731",
      "single_word": false,
      "lstrip": false,
      "rstrip": false,
      "normalized": false,
      "special": true
    },
    {
      "id": 750,
      "content": "City_732",
      "single_word": false,
      "lstrip": false,
      "rstrip": false,
      "normalized": false,
      "special": true
    },
    {
      "id": 751,
      "content": "City_733",
      "single_word": false,
      "lstrip": false,
      "rstrip": false,
      "normalized": false,
      "special": true
    },
    {
      "id": 752,
      "content": "City_734",
      "single_word": false,
      "lstrip": false,
      "rstrip": false,
      "normalized": false,
      "special": true
    },
    {
      "id": 753,
      "content": "City_735",
      "single_word": false,
      "lstrip": false,
      "rstrip": false,
      "normalized": false,
      "special": true
    },
    {
      "id": 754,
      "content": "City_736",
      "single_word": false,
      "lstrip": false,
      "rstrip": false,
      "normalized": false,
      "special": true
    },
    {
      "id": 755,
      "content": "City_737",
      "single_word": false,
      "lstrip": false,
      "rstrip": false,
      "normalized": false,
      "special": true
    },
    {
      "id": 756,
      "content": "City_738",
      "single_word": false,
      "lstrip": false,
      "rstrip": false,
      "normalized": false,
      "special": true
    },
    {
      "id": 757,
      "content": "City_739",
      "single_word": false,
      "lstrip": false,
      "rstrip": false,
      "normalized": false,
      "special": true
    },
    {
      "id": 758,
      "content": "City_740",
      "single_word": false,
      "lstrip": false,
      "rstrip": false,
      "normalized": false,
      "special": true
    },
    {
      "id": 759,
      "content": "City_741",
      "single_word": false,
      "lstrip": false,
      "rstrip": false,
      "normalized": false,
      "special": true
    },
    {
      "id": 760,
      "content": "City_742",
      "single_word": false,
      "lstrip": false,
      "rstrip": false,
      "normalized": false,
      "special": true
    },
    {
      "id": 761,
      "content": "City_743",
      "single_word": false,
      "lstrip": false,
      "rstrip": false,
      "normalized": false,
      "special": true
    },
    {
      "id": 762,
      "content": "City_744",
      "single_word": false,
      "lstrip": false,
      "rstrip": false,
      "normalized": false,
      "special": true
    },
    {
      "id": 763,
      "content": "City_745",
      "single_word": false,
      "lstrip": false,
      "rstrip": false,
      "normalized": false,
      "special": true
    },
    {
      "id": 764,
      "content": "City_746",
      "single_word": false,
      "lstrip": false,
      "rstrip": false,
      "normalized": false,
      "special": true
    },
    {
      "id": 765,
      "content": "City_747",
      "single_word": false,
      "lstrip": false,
      "rstrip": false,
      "normalized": false,
      "special": true
    },
    {
      "id": 766,
      "content": "City_748",
      "single_word": false,
      "lstrip": false,
      "rstrip": false,
      "normalized": false,
      "special": true
    },
    {
      "id": 767,
      "content": "City_749",
      "single_word": false,
      "lstrip": false,
      "rstrip": false,
      "normalized": false,
      "special": true
    },
    {
      "id": 768,
      "content": "City_750",
      "single_word": false,
      "lstrip": false,
      "rstrip": false,
      "normalized": false,
      "special": true
    },
    {
      "id": 769,
      "content": "City_751",
      "single_word": false,
      "lstrip": false,
      "rstrip": false,
      "normalized": false,
      "special": true
    },
    {
      "id": 770,
      "content": "City_752",
      "single_word": false,
      "lstrip": false,
      "rstrip": false,
      "normalized": false,
      "special": true
    },
    {
      "id": 771,
      "content": "City_753",
      "single_word": false,
      "lstrip": false,
      "rstrip": false,
      "normalized": false,
      "special": true
    },
    {
      "id": 772,
      "content": "City_754",
      "single_word": false,
      "lstrip": false,
      "rstrip": false,
      "normalized": false,
      "special": true
    },
    {
      "id": 773,
      "content": "City_755",
      "single_word": false,
      "lstrip": false,
      "rstrip": false,
      "normalized": false,
      "special": true
    },
    {
      "id": 774,
      "content": "City_756",
      "single_word": false,
      "lstrip": false,
      "rstrip": false,
      "normalized": false,
      "special": true
    },
    {
      "id": 775,
      "content": "City_757",
      "single_word": false,
      "lstrip": false,
      "rstrip": false,
      "normalized": false,
      "special": true
    },
    {
      "id": 776,
      "content": "City_758",
      "single_word": false,
      "lstrip": false,
      "rstrip": false,
      "normalized": false,
      "special": true
    },
    {
      "id": 777,
      "content": "City_759",
      "single_word": false,
      "lstrip": false,
      "rstrip": false,
      "normalized": false,
      "special": true
    },
    {
      "id": 778,
      "content": "City_760",
      "single_word": false,
      "lstrip": false,
      "rstrip": false,
      "normalized": false,
      "special": true
    },
    {
      "id": 779,
      "content": "City_761",
      "single_word": false,
      "lstrip": false,
      "rstrip": false,
      "normalized": false,
      "special": true
    },
    {
      "id": 780,
      "content": "City_762",
      "single_word": false,
      "lstrip": false,
      "rstrip": false,
      "normalized": false,
      "special": true
    },
    {
      "id": 781,
      "content": "City_763",
      "single_word": false,
      "lstrip": false,
      "rstrip": false,
      "normalized": false,
      "special": true
    },
    {
      "id": 782,
      "content": "City_764",
      "single_word": false,
      "lstrip": false,
      "rstrip": false,
      "normalized": false,
      "special": true
    },
    {
      "id": 783,
      "content": "City_765",
      "single_word": false,
      "lstrip": false,
      "rstrip": false,
      "normalized": false,
      "special": true
    },
    {
      "id": 784,
      "content": "City_766",
      "single_word": false,
      "lstrip": false,
      "rstrip": false,
      "normalized": false,
      "special": true
    },
    {
      "id": 785,
      "content": "City_767",
      "single_word": false,
      "lstrip": false,
      "rstrip": false,
      "normalized": false,
      "special": true
    },
    {
      "id": 786,
      "content": "City_768",
      "single_word": false,
      "lstrip": false,
      "rstrip": false,
      "normalized": false,
      "special": true
    },
    {
      "id": 787,
      "content": "City_769",
      "single_word": false,
      "lstrip": false,
      "rstrip": false,
      "normalized": false,
      "special": true
    },
    {
      "id": 788,
      "content": "City_770",
      "single_word": false,
      "lstrip": false,
      "rstrip": false,
      "normalized": false,
      "special": true
    },
    {
      "id": 789,
      "content": "City_771",
      "single_word": false,
      "lstrip": false,
      "rstrip": false,
      "normalized": false,
      "special": true
    },
    {
      "id": 790,
      "content": "City_772",
      "single_word": false,
      "lstrip": false,
      "rstrip": false,
      "normalized": false,
      "special": true
    },
    {
      "id": 791,
      "content": "City_773",
      "single_word": false,
      "lstrip": false,
      "rstrip": false,
      "normalized": false,
      "special": true
    },
    {
      "id": 792,
      "content": "City_774",
      "single_word": false,
      "lstrip": false,
      "rstrip": false,
      "normalized": false,
      "special": true
    },
    {
      "id": 793,
      "content": "City_775",
      "single_word": false,
      "lstrip": false,
      "rstrip": false,
      "normalized": false,
      "special": true
    },
    {
      "id": 794,
      "content": "City_776",
      "single_word": false,
      "lstrip": false,
      "rstrip": false,
      "normalized": false,
      "special": true
    },
    {
      "id": 795,
      "content": "City_777",
      "single_word": false,
      "lstrip": false,
      "rstrip": false,
      "normalized": false,
      "special": true
    },
    {
      "id": 796,
      "content": "City_778",
      "single_word": false,
      "lstrip": false,
      "rstrip": false,
      "normalized": false,
      "special": true
    },
    {
      "id": 797,
      "content": "City_779",
      "single_word": false,
      "lstrip": false,
      "rstrip": false,
      "normalized": false,
      "special": true
    },
    {
      "id": 798,
      "content": "City_780",
      "single_word": false,
      "lstrip": false,
      "rstrip": false,
      "normalized": false,
      "special": true
    },
    {
      "id": 799,
      "content": "City_781",
      "single_word": false,
      "lstrip": false,
      "rstrip": false,
      "normalized": false,
      "special": true
    },
    {
      "id": 800,
      "content": "City_782",
      "single_word": false,
      "lstrip": false,
      "rstrip": false,
      "normalized": false,
      "special": true
    },
    {
      "id": 801,
      "content": "City_783",
      "single_word": false,
      "lstrip": false,
      "rstrip": false,
      "normalized": false,
      "special": true
    },
    {
      "id": 802,
      "content": "City_784",
      "single_word": false,
      "lstrip": false,
      "rstrip": false,
      "normalized": false,
      "special": true
    },
    {
      "id": 803,
      "content": "City_785",
      "single_word": false,
      "lstrip": false,
      "rstrip": false,
      "normalized": false,
      "special": true
    },
    {
      "id": 804,
      "content": "City_786",
      "single_word": false,
      "lstrip": false,
      "rstrip": false,
      "normalized": false,
      "special": true
    },
    {
      "id": 805,
      "content": "City_787",
      "single_word": false,
      "lstrip": false,
      "rstrip": false,
      "normalized": false,
      "special": true
    },
    {
      "id": 806,
      "content": "City_788",
      "single_word": false,
      "lstrip": false,
      "rstrip": false,
      "normalized": false,
      "special": true
    },
    {
      "id": 807,
      "content": "City_789",
      "single_word": false,
      "lstrip": false,
      "rstrip": false,
      "normalized": false,
      "special": true
    },
    {
      "id": 808,
      "content": "City_790",
      "single_word": false,
      "lstrip": false,
      "rstrip": false,
      "normalized": false,
      "special": true
    },
    {
      "id": 809,
      "content": "City_791",
      "single_word": false,
      "lstrip": false,
      "rstrip": false,
      "normalized": false,
      "special": true
    },
    {
      "id": 810,
      "content": "City_792",
      "single_word": false,
      "lstrip": false,
      "rstrip": false,
      "normalized": false,
      "special": true
    },
    {
      "id": 811,
      "content": "City_793",
      "single_word": false,
      "lstrip": false,
      "rstrip": false,
      "normalized": false,
      "special": true
    },
    {
      "id": 812,
      "content": "City_794",
      "single_word": false,
      "lstrip": false,
      "rstrip": false,
      "normalized": false,
      "special": true
    },
    {
      "id": 813,
      "content": "City_795",
      "single_word": false,
      "lstrip": false,
      "rstrip": false,
      "normalized": false,
      "special": true
    },
    {
      "id": 814,
      "content": "City_796",
      "single_word": false,
      "lstrip": false,
      "rstrip": false,
      "normalized": false,
      "special": true
    },
    {
      "id": 815,
      "content": "City_797",
      "single_word": false,
      "lstrip": false,
      "rstrip": false,
      "normalized": false,
      "special": true
    },
    {
      "id": 816,
      "content": "City_798",
      "single_word": false,
      "lstrip": false,
      "rstrip": false,
      "normalized": false,
      "special": true
    },
    {
      "id": 817,
      "content": "City_799",
      "single_word": false,
      "lstrip": false,
      "rstrip": false,
      "normalized": false,
      "special": true
    },
    {
      "id": 818,
      "content": "City_800",
      "single_word": false,
      "lstrip": false,
      "rstrip": false,
      "normalized": false,
      "special": true
    },
    {
      "id": 819,
      "content": "City_801",
      "single_word": false,
      "lstrip": false,
      "rstrip": false,
      "normalized": false,
      "special": true
    },
    {
      "id": 820,
      "content": "City_802",
      "single_word": false,
      "lstrip": false,
      "rstrip": false,
      "normalized": false,
      "special": true
    },
    {
      "id": 821,
      "content": "City_803",
      "single_word": false,
      "lstrip": false,
      "rstrip": false,
      "normalized": false,
      "special": true
    },
    {
      "id": 822,
      "content": "City_804",
      "single_word": false,
      "lstrip": false,
      "rstrip": false,
      "normalized": false,
      "special": true
    },
    {
      "id": 823,
      "content": "City_805",
      "single_word": false,
      "lstrip": false,
      "rstrip": false,
      "normalized": false,
      "special": true
    },
    {
      "id": 824,
      "content": "City_806",
      "single_word": false,
      "lstrip": false,
      "rstrip": false,
      "normalized": false,
      "special": true
    },
    {
      "id": 825,
      "content": "City_807",
      "single_word": false,
      "lstrip": false,
      "rstrip": false,
      "normalized": false,
      "special": true
    },
    {
      "id": 826,
      "content": "City_808",
      "single_word": false,
      "lstrip": false,
      "rstrip": false,
      "normalized": false,
      "special": true
    },
    {
      "id": 827,
      "content": "City_809",
      "single_word": false,
      "lstrip": false,
      "rstrip": false,
      "normalized": false,
      "special": true
    },
    {
      "id": 828,
      "content": "City_810",
      "single_word": false,
      "lstrip": false,
      "rstrip": false,
      "normalized": false,
      "special": true
    },
    {
      "id": 829,
      "content": "City_811",
      "single_word": false,
      "lstrip": false,
      "rstrip": false,
      "normalized": false,
      "special": true
    },
    {
      "id": 830,
      "content": "City_812",
      "single_word": false,
      "lstrip": false,
      "rstrip": false,
      "normalized": false,
      "special": true
    },
    {
      "id": 831,
      "content": "City_813",
      "single_word": false,
      "lstrip": false,
      "rstrip": false,
      "normalized": false,
      "special": true
    },
    {
      "id": 832,
      "content": "City_814",
      "single_word": false,
      "lstrip": false,
      "rstrip": false,
      "normalized": false,
      "special": true
    },
    {
      "id": 833,
      "content": "City_815",
      "single_word": false,
      "lstrip": false,
      "rstrip": false,
      "normalized": false,
      "special": true
    },
    {
      "id": 834,
      "content": "City_816",
      "single_word": false,
      "lstrip": false,
      "rstrip": false,
      "normalized": false,
      "special": true
    },
    {
      "id": 835,
      "content": "City_817",
      "single_word": false,
      "lstrip": false,
      "rstrip": false,
      "normalized": false,
      "special": true
    },
    {
      "id": 836,
      "content": "City_818",
      "single_word": false,
      "lstrip": false,
      "rstrip": false,
      "normalized": false,
      "special": true
    },
    {
      "id": 837,
      "content": "State_1",
      "single_word": false,
      "lstrip": false,
      "rstrip": false,
      "normalized": false,
      "special": true
    },
    {
      "id": 838,
      "content": "State_2",
      "single_word": false,
      "lstrip": false,
      "rstrip": false,
      "normalized": false,
      "special": true
    },
    {
      "id": 839,
      "content": "State_3",
      "single_word": false,
      "lstrip": false,
      "rstrip": false,
      "normalized": false,
      "special": true
    },
    {
      "id": 840,
      "content": "State_4",
      "single_word": false,
      "lstrip": false,
      "rstrip": false,
      "normalized": false,
      "special": true
    },
    {
      "id": 841,
      "content": "State_5",
      "single_word": false,
      "lstrip": false,
      "rstrip": false,
      "normalized": false,
      "special": true
    },
    {
      "id": 842,
      "content": "State_6",
      "single_word": false,
      "lstrip": false,
      "rstrip": false,
      "normalized": false,
      "special": true
    },
    {
      "id": 843,
      "content": "State_7",
      "single_word": false,
      "lstrip": false,
      "rstrip": false,
      "normalized": false,
      "special": true
    },
    {
      "id": 844,
      "content": "State_8",
      "single_word": false,
      "lstrip": false,
      "rstrip": false,
      "normalized": false,
      "special": true
    },
    {
      "id": 845,
      "content": "State_9",
      "single_word": false,
      "lstrip": false,
      "rstrip": false,
      "normalized": false,
      "special": true
    },
    {
      "id": 846,
      "content": "State_10",
      "single_word": false,
      "lstrip": false,
      "rstrip": false,
      "normalized": false,
      "special": true
    },
    {
      "id": 847,
      "content": "State_11",
      "single_word": false,
      "lstrip": false,
      "rstrip": false,
      "normalized": false,
      "special": true
    },
    {
      "id": 848,
      "content": "State_12",
      "single_word": false,
      "lstrip": false,
      "rstrip": false,
      "normalized": false,
      "special": true
    },
    {
      "id": 849,
      "content": "State_13",
      "single_word": false,
      "lstrip": false,
      "rstrip": false,
      "normalized": false,
      "special": true
    },
    {
      "id": 850,
      "content": "State_14",
      "single_word": false,
      "lstrip": false,
      "rstrip": false,
      "normalized": false,
      "special": true
    },
    {
      "id": 851,
      "content": "State_15",
      "single_word": false,
      "lstrip": false,
      "rstrip": false,
      "normalized": false,
      "special": true
    },
    {
      "id": 852,
      "content": "State_16",
      "single_word": false,
      "lstrip": false,
      "rstrip": false,
      "normalized": false,
      "special": true
    },
    {
      "id": 853,
      "content": "State_17",
      "single_word": false,
      "lstrip": false,
      "rstrip": false,
      "normalized": false,
      "special": true
    },
    {
      "id": 854,
      "content": "State_18",
      "single_word": false,
      "lstrip": false,
      "rstrip": false,
      "normalized": false,
      "special": true
    },
    {
      "id": 855,
      "content": "State_19",
      "single_word": false,
      "lstrip": false,
      "rstrip": false,
      "normalized": false,
      "special": true
    },
    {
      "id": 856,
      "content": "State_20",
      "single_word": false,
      "lstrip": false,
      "rstrip": false,
      "normalized": false,
      "special": true
    },
    {
      "id": 857,
      "content": "State_21",
      "single_word": false,
      "lstrip": false,
      "rstrip": false,
      "normalized": false,
      "special": true
    },
    {
      "id": 858,
      "content": "State_22",
      "single_word": false,
      "lstrip": false,
      "rstrip": false,
      "normalized": false,
      "special": true
    },
    {
      "id": 859,
      "content": "State_23",
      "single_word": false,
      "lstrip": false,
      "rstrip": false,
      "normalized": false,
      "special": true
    },
    {
      "id": 860,
      "content": "State_24",
      "single_word": false,
      "lstrip": false,
      "rstrip": false,
      "normalized": false,
      "special": true
    },
    {
      "id": 861,
      "content": "State_25",
      "single_word": false,
      "lstrip": false,
      "rstrip": false,
      "normalized": false,
      "special": true
    },
    {
      "id": 862,
      "content": "State_26",
      "single_word": false,
      "lstrip": false,
      "rstrip": false,
      "normalized": false,
      "special": true
    },
    {
      "id": 863,
      "content": "State_27",
      "single_word": false,
      "lstrip": false,
      "rstrip": false,
      "normalized": false,
      "special": true
    },
    {
      "id": 864,
      "content": "State_28",
      "single_word": false,
      "lstrip": false,
      "rstrip": false,
      "normalized": false,
      "special": true
    },
    {
      "id": 865,
      "content": "State_29",
      "single_word": false,
      "lstrip": false,
      "rstrip": false,
      "normalized": false,
      "special": true
    },
    {
      "id": 866,
      "content": "State_30",
      "single_word": false,
      "lstrip": false,
      "rstrip": false,
      "normalized": false,
      "special": true
    },
    {
      "id": 867,
      "content": "State_31",
      "single_word": false,
      "lstrip": false,
      "rstrip": false,
      "normalized": false,
      "special": true
    },
    {
      "id": 868,
      "content": "State_32",
      "single_word": false,
      "lstrip": false,
      "rstrip": false,
      "normalized": false,
      "special": true
    },
    {
      "id": 869,
      "content": "State_33",
      "single_word": false,
      "lstrip": false,
      "rstrip": false,
      "normalized": false,
      "special": true
    },
    {
      "id": 870,
      "content": "State_34",
      "single_word": false,
      "lstrip": false,
      "rstrip": false,
      "normalized": false,
      "special": true
    },
    {
      "id": 871,
      "content": "State_35",
      "single_word": false,
      "lstrip": false,
      "rstrip": false,
      "normalized": false,
      "special": true
    },
    {
      "id": 872,
      "content": "State_36",
      "single_word": false,
      "lstrip": false,
      "rstrip": false,
      "normalized": false,
      "special": true
    },
    {
      "id": 873,
      "content": "State_37",
      "single_word": false,
      "lstrip": false,
      "rstrip": false,
      "normalized": false,
      "special": true
    },
    {
      "id": 874,
      "content": "State_38",
      "single_word": false,
      "lstrip": false,
      "rstrip": false,
      "normalized": false,
      "special": true
    },
    {
      "id": 875,
      "content": "State_39",
      "single_word": false,
      "lstrip": false,
      "rstrip": false,
      "normalized": false,
      "special": true
    },
    {
      "id": 876,
      "content": "State_40",
      "single_word": false,
      "lstrip": false,
      "rstrip": false,
      "normalized": false,
      "special": true
    },
    {
      "id": 877,
      "content": "State_41",
      "single_word": false,
      "lstrip": false,
      "rstrip": false,
      "normalized": false,
      "special": true
    },
    {
      "id": 878,
      "content": "State_42",
      "single_word": false,
      "lstrip": false,
      "rstrip": false,
      "normalized": false,
      "special": true
    },
    {
      "id": 879,
      "content": "State_43",
      "single_word": false,
      "lstrip": false,
      "rstrip": false,
      "normalized": false,
      "special": true
    },
    {
      "id": 880,
      "content": "State_44",
      "single_word": false,
      "lstrip": false,
      "rstrip": false,
      "normalized": false,
      "special": true
    },
    {
      "id": 881,
      "content": "State_45",
      "single_word": false,
      "lstrip": false,
      "rstrip": false,
      "normalized": false,
      "special": true
    },
    {
      "id": 882,
      "content": "State_46",
      "single_word": false,
      "lstrip": false,
      "rstrip": false,
      "normalized": false,
      "special": true
    },
    {
      "id": 883,
      "content": "State_47",
      "single_word": false,
      "lstrip": false,
      "rstrip": false,
      "normalized": false,
      "special": true
    },
    {
      "id": 884,
      "content": "canada",
      "single_word": false,
      "lstrip": false,
      "rstrip": false,
      "normalized": false,
      "special": true
    }
  ],
  "normalizer": null,
  "pre_tokenizer": {
    "type": "Sequence",
    "pretokenizers": [
      {
        "type": "ByteLevel",
        "add_prefix_space": true,
        "trim_offsets": true,
        "use_regex": true
      }
    ]
  },
  "post_processor": null,
  "decoder": null,
  "model": {
    "type": "BPE",
    "dropout": null,
    "unk_token": "[UNK_USER]",
    "continuing_subword_prefix": null,
    "end_of_word_suffix": null,
    "fuse_unk": false,
    "byte_fallback": false,
    "vocab": {
      "[USER_PAD]": 0,
      "[USER_CLS]": 1,
      "[AGE_S]": 2,
      "[AGE_E]": 3,
      "[CITY_S]": 4,
      "[CITY_E]": 5,
      "[STATE_S]": 6,
      "[STATE_E]": 7,
      "[COUNTRY_S]": 8,
      "[COUNTRY_E]": 9,
      "20_29": 10,
      "60_100": 11,
      "30_39": 12,
      "40_59": 13,
      "15_19": 14,
      "10_14": 15,
      "Age_0": 16,
      "1_4": 17,
      "5_9": 18,
      "City_1": 19,
      "City_2": 20,
      "City_3": 21,
      "City_4": 22,
      "City_5": 23,
      "City_6": 24,
      "City_7": 25,
      "City_8": 26,
      "City_9": 27,
      "City_10": 28,
      "City_11": 29,
      "City_12": 30,
      "City_13": 31,
      "City_14": 32,
      "City_15": 33,
      "City_16": 34,
      "City_17": 35,
      "City_18": 36,
      "City_19": 37,
      "City_20": 38,
      "City_21": 39,
      "City_22": 40,
      "City_23": 41,
      "City_24": 42,
      "City_25": 43,
      "City_26": 44,
      "City_27": 45,
      "City_28": 46,
      "City_29": 47,
      "City_30": 48,
      "City_31": 49,
      "City_32": 50,
      "City_33": 51,
      "City_34": 52,
      "City_35": 53,
      "City_36": 54,
      "City_37": 55,
      "City_38": 56,
      "City_39": 57,
      "City_40": 58,
      "City_41": 59,
      "City_42": 60,
      "City_43": 61,
      "City_44": 62,
      "City_45": 63,
      "City_46": 64,
      "City_47": 65,
      "City_48": 66,
      "City_49": 67,
      "City_50": 68,
      "City_51": 69,
      "City_52": 70,
      "City_53": 71,
      "City_54": 72,
      "City_55": 73,
      "City_56": 74,
      "City_57": 75,
      "City_58": 76,
      "City_59": 77,
      "City_60": 78,
      "City_61": 79,
      "City_62": 80,
      "City_63": 81,
      "City_64": 82,
      "City_65": 83,
      "City_66": 84,
      "City_67": 85,
      "City_68": 86,
      "City_69": 87,
      "City_70": 88,
      "City_71": 89,
      "City_72": 90,
      "City_73": 91,
      "City_74": 92,
      "City_75": 93,
      "City_76": 94,
      "City_77": 95,
      "City_78": 96,
      "City_79": 97,
      "City_80": 98,
      "City_81": 99,
      "City_82": 100,
      "City_83": 101,
      "City_84": 102,
      "City_85": 103,
      "City_86": 104,
      "City_87": 105,
      "City_88": 106,
      "City_89": 107,
      "City_90": 108,
      "City_91": 109,
      "City_92": 110,
      "City_93": 111,
      "City_94": 112,
      "City_95": 113,
      "City_96": 114,
      "City_97": 115,
      "City_98": 116,
      "City_99": 117,
      "City_100": 118,
      "City_101": 119,
      "City_102": 120,
      "City_103": 121,
      "City_104": 122,
      "City_105": 123,
      "City_106": 124,
      "City_107": 125,
      "City_108": 126,
      "City_109": 127,
      "City_110": 128,
      "City_111": 129,
      "City_112": 130,
      "City_113": 131,
      "City_114": 132,
      "City_115": 133,
      "City_116": 134,
      "City_117": 135,
      "City_118": 136,
      "City_119": 137,
      "City_120": 138,
      "City_121": 139,
      "City_122": 140,
      "City_123": 141,
      "City_124": 142,
      "City_125": 143,
      "City_126": 144,
      "City_127": 145,
      "City_128": 146,
      "City_129": 147,
      "City_130": 148,
      "City_131": 149,
      "City_132": 150,
      "City_133": 151,
      "City_134": 152,
      "City_135": 153,
      "City_136": 154,
      "City_137": 155,
      "City_138": 156,
      "City_139": 157,
      "City_140": 158,
      "City_141": 159,
      "City_142": 160,
      "City_143": 161,
      "City_144": 162,
      "City_145": 163,
      "City_146": 164,
      "City_147": 165,
      "City_148": 166,
      "City_149": 167,
      "City_150": 168,
      "City_151": 169,
      "City_152": 170,
      "City_153": 171,
      "City_154": 172,
      "City_155": 173,
      "City_156": 174,
      "City_157": 175,
      "City_158": 176,
      "City_159": 177,
      "City_160": 178,
      "City_161": 179,
      "City_162": 180,
      "City_163": 181,
      "City_164": 182,
      "City_165": 183,
      "City_166": 184,
      "City_167": 185,
      "City_168": 186,
      "City_169": 187,
      "City_170": 188,
      "City_171": 189,
      "City_172": 190,
      "City_173": 191,
      "City_174": 192,
      "City_175": 193,
      "City_176": 194,
      "City_177": 195,
      "City_178": 196,
      "City_179": 197,
      "City_180": 198,
      "City_181": 199,
      "City_182": 200,
      "City_183": 201,
      "City_184": 202,
      "City_185": 203,
      "City_186": 204,
      "City_187": 205,
      "City_188": 206,
      "City_189": 207,
      "City_190": 208,
      "City_191": 209,
      "City_192": 210,
      "City_193": 211,
      "City_194": 212,
      "City_195": 213,
      "City_196": 214,
      "City_197": 215,
      "City_198": 216,
      "City_199": 217,
      "City_200": 218,
      "City_201": 219,
      "City_202": 220,
      "City_203": 221,
      "City_204": 222,
      "City_205": 223,
      "City_206": 224,
      "City_207": 225,
      "City_208": 226,
      "City_209": 227,
      "City_210": 228,
      "City_211": 229,
      "City_212": 230,
      "City_213": 231,
      "City_214": 232,
      "City_215": 233,
      "City_216": 234,
      "City_217": 235,
      "City_218": 236,
      "City_219": 237,
      "City_220": 238,
      "City_221": 239,
      "City_222": 240,
      "City_223": 241,
      "City_224": 242,
      "City_225": 243,
      "City_226": 244,
      "City_227": 245,
      "City_228": 246,
      "City_229": 247,
      "City_230": 248,
      "City_231": 249,
      "City_232": 250,
      "City_233": 251,
      "City_234": 252,
      "City_235": 253,
      "City_236": 254,
      "City_237": 255,
      "City_238": 256,
      "City_239": 257,
      "City_240": 258,
      "City_241": 259,
      "City_242": 260,
      "City_243": 261,
      "City_244": 262,
      "City_245": 263,
      "City_246": 264,
      "City_247": 265,
      "City_248": 266,
      "City_249": 267,
      "City_250": 268,
      "City_251": 269,
      "City_252": 270,
      "City_253": 271,
      "City_254": 272,
      "City_255": 273,
      "City_256": 274,
      "City_257": 275,
      "City_258": 276,
      "City_259": 277,
      "City_260": 278,
      "City_261": 279,
      "City_262": 280,
      "City_263": 281,
      "City_264": 282,
      "City_265": 283,
      "City_266": 284,
      "City_267": 285,
      "City_268": 286,
      "City_269": 287,
      "City_270": 288,
      "City_271": 289,
      "City_272": 290,
      "City_273": 291,
      "City_274": 292,
      "City_275": 293,
      "City_276": 294,
      "City_277": 295,
      "City_278": 296,
      "City_279": 297,
      "City_280": 298,
      "City_281": 299,
      "City_282": 300,
      "City_283": 301,
      "City_284": 302,
      "City_285": 303,
      "City_286": 304,
      "City_287": 305,
      "City_288": 306,
      "City_289": 307,
      "City_290": 308,
      "City_291": 309,
      "City_292": 310,
      "City_293": 311,
      "City_294": 312,
      "City_295": 313,
      "City_296": 314,
      "City_297": 315,
      "City_298": 316,
      "City_299": 317,
      "City_300": 318,
      "City_301": 319,
      "City_302": 320,
      "City_303": 321,
      "City_304": 322,
      "City_305": 323,
      "City_306": 324,
      "City_307": 325,
      "City_308": 326,
      "City_309": 327,
      "City_310": 328,
      "City_311": 329,
      "City_312": 330,
      "City_313": 331,
      "City_314": 332,
      "City_315": 333,
      "City_316": 334,
      "City_317": 335,
      "City_318": 336,
      "City_319": 337,
      "City_320": 338,
      "City_321": 339,
      "City_322": 340,
      "City_323": 341,
      "City_324": 342,
      "City_325": 343,
      "City_326": 344,
      "City_327": 345,
      "City_328": 346,
      "City_329": 347,
      "City_330": 348,
      "City_331": 349,
      "City_332": 350,
      "City_333": 351,
      "City_334": 352,
      "City_335": 353,
      "City_336": 354,
      "City_337": 355,
      "City_338": 356,
      "City_339": 357,
      "City_340": 358,
      "City_341": 359,
      "City_342": 360,
      "City_343": 361,
      "City_344": 362,
      "City_345": 363,
      "City_346": 364,
      "City_347": 365,
      "City_348": 366,
      "City_349": 367,
      "City_350": 368,
      "City_351": 369,
      "City_352": 370,
      "City_353": 371,
      "City_354": 372,
      "City_355": 373,
      "City_356": 374,
      "City_357": 375,
      "City_358": 376,
      "City_359": 377,
      "City_360": 378,
      "City_361": 379,
      "City_362": 380,
      "City_363": 381,
      "City_364": 382,
      "City_365": 383,
      "City_366": 384,
      "City_367": 385,
      "City_368": 386,
      "City_369": 387,
      "City_370": 388,
      "City_371": 389,
      "City_372": 390,
      "City_373": 391,
      "City_374": 392,
      "City_375": 393,
      "City_376": 394,
      "City_377": 395,
      "City_378": 396,
      "City_379": 397,
      "City_380": 398,
      "City_381": 399,
      "City_382": 400,
      "City_383": 401,
      "City_384": 402,
      "City_385": 403,
      "City_386": 404,
      "City_387": 405,
      "City_388": 406,
      "City_389": 407,
      "City_390": 408,
      "City_391": 409,
      "City_392": 410,
      "City_393": 411,
      "City_394": 412,
      "City_395": 413,
      "City_396": 414,
      "City_397": 415,
      "City_398": 416,
      "City_399": 417,
      "City_400": 418,
      "City_401": 419,
      "City_402": 420,
      "City_403": 421,
      "City_404": 422,
      "City_405": 423,
      "City_406": 424,
      "City_407": 425,
      "City_408": 426,
      "City_409": 427,
      "City_410": 428,
      "City_411": 429,
      "City_412": 430,
      "City_413": 431,
      "City_414": 432,
      "City_415": 433,
      "City_416": 434,
      "City_417": 435,
      "City_418": 436,
      "City_419": 437,
      "City_420": 438,
      "City_421": 439,
      "City_422": 440,
      "City_423": 441,
      "City_424": 442,
      "City_425": 443,
      "City_426": 444,
      "City_427": 445,
      "City_428": 446,
      "City_429": 447,
      "City_430": 448,
      "City_431": 449,
      "City_432": 450,
      "City_433": 451,
      "City_434": 452,
      "City_435": 453,
      "City_436": 454,
      "City_437": 455,
      "City_438": 456,
      "City_439": 457,
      "City_440": 458,
      "City_441": 459,
      "City_442": 460,
      "City_443": 461,
      "City_444": 462,
      "City_445": 463,
      "City_446": 464,
      "City_447": 465,
      "City_448": 466,
      "City_449": 467,
      "City_450": 468,
      "City_451": 469,
      "City_452": 470,
      "City_453": 471,
      "City_454": 472,
      "City_455": 473,
      "City_456": 474,
      "City_457": 475,
      "City_458": 476,
      "City_459": 477,
      "City_460": 478,
      "City_461": 479,
      "City_462": 480,
      "City_463": 481,
      "City_464": 482,
      "City_465": 483,
      "City_466": 484,
      "City_467": 485,
      "City_468": 486,
      "City_469": 487,
      "City_470": 488,
      "City_471": 489,
      "City_472": 490,
      "City_473": 491,
      "City_474": 492,
      "City_475": 493,
      "City_476": 494,
      "City_477": 495,
      "City_478": 496,
      "City_479": 497,
      "City_480": 498,
      "City_481": 499,
      "City_482": 500,
      "City_483": 501,
      "City_484": 502,
      "City_485": 503,
      "City_486": 504,
      "City_487": 505,
      "City_488": 506,
      "City_489": 507,
      "City_490": 508,
      "City_491": 509,
      "City_492": 510,
      "City_493": 511,
      "City_494": 512,
      "City_495": 513,
      "City_496": 514,
      "City_497": 515,
      "City_498": 516,
      "City_499": 517,
      "City_500": 518,
      "City_501": 519,
      "City_502": 520,
      "City_503": 521,
      "City_504": 522,
      "City_505": 523,
      "City_506": 524,
      "City_507": 525,
      "City_508": 526,
      "City_509": 527,
      "City_510": 528,
      "City_511": 529,
      "City_512": 530,
      "City_513": 531,
      "City_514": 532,
      "City_515": 533,
      "City_516": 534,
      "City_517": 535,
      "City_518": 536,
      "City_519": 537,
      "City_520": 538,
      "City_521": 539,
      "City_522": 540,
      "City_523": 541,
      "City_524": 542,
      "City_525": 543,
      "City_526": 544,
      "City_527": 545,
      "City_528": 546,
      "City_529": 547,
      "City_530": 548,
      "City_531": 549,
      "City_532": 550,
      "City_533": 551,
      "City_534": 552,
      "City_535": 553,
      "City_536": 554,
      "City_537": 555,
      "City_538": 556,
      "City_539": 557,
      "City_540": 558,
      "City_541": 559,
      "City_542": 560,
      "City_543": 561,
      "City_544": 562,
      "City_545": 563,
      "City_546": 564,
      "City_547": 565,
      "City_548": 566,
      "City_549": 567,
      "City_550": 568,
      "City_551": 569,
      "City_552": 570,
      "City_553": 571,
      "City_554": 572,
      "City_555": 573,
      "City_556": 574,
      "City_557": 575,
      "City_558": 576,
      "City_559": 577,
      "City_560": 578,
      "City_561": 579,
      "City_562": 580,
      "City_563": 581,
      "City_564": 582,
      "City_565": 583,
      "City_566": 584,
      "City_567": 585,
      "City_568": 586,
      "City_569": 587,
      "City_570": 588,
      "City_571": 589,
      "City_572": 590,
      "City_573": 591,
      "City_574": 592,
      "City_575": 593,
      "City_576": 594,
      "City_577": 595,
      "City_578": 596,
      "City_579": 597,
      "City_580": 598,
      "City_581": 599,
      "City_582": 600,
      "City_583": 601,
      "City_584": 602,
      "City_585": 603,
      "City_586": 604,
      "City_587": 605,
      "City_588": 606,
      "City_589": 607,
      "City_590": 608,
      "City_591": 609,
      "City_592": 610,
      "City_593": 611,
      "City_594": 612,
      "City_595": 613,
      "City_596": 614,
      "City_597": 615,
      "City_598": 616,
      "City_599": 617,
      "City_600": 618,
      "City_601": 619,
      "City_602": 620,
      "City_603": 621,
      "City_604": 622,
      "City_605": 623,
      "City_606": 624,
      "City_607": 625,
      "City_608": 626,
      "City_609": 627,
      "City_610": 628,
      "City_611": 629,
      "City_612": 630,
      "City_613": 631,
      "City_614": 632,
      "City_615": 633,
      "City_616": 634,
      "City_617": 635,
      "City_618": 636,
      "City_619": 637,
      "City_620": 638,
      "City_621": 639,
      "City_622": 640,
      "City_623": 641,
      "City_624": 642,
      "City_625": 643,
      "City_626": 644,
      "City_627": 645,
      "City_628": 646,
      "City_629": 647,
      "City_630": 648,
      "City_631": 649,
      "City_632": 650,
      "City_633": 651,
      "City_634": 652,
      "City_635": 653,
      "City_636": 654,
      "City_637": 655,
      "City_638": 656,
      "City_639": 657,
      "City_640": 658,
      "City_641": 659,
      "City_642": 660,
      "City_643": 661,
      "City_644": 662,
      "City_645": 663,
      "City_646": 664,
      "City_647": 665,
      "City_648": 666,
      "City_649": 667,
      "City_650": 668,
      "City_651": 669,
      "City_652": 670,
      "City_653": 671,
      "City_654": 672,
      "City_655": 673,
      "City_656": 674,
      "City_657": 675,
      "City_658": 676,
      "City_659": 677,
      "City_660": 678,
      "City_661": 679,
      "City_662": 680,
      "City_663": 681,
      "City_664": 682,
      "City_665": 683,
      "City_666": 684,
      "City_667": 685,
      "City_668": 686,
      "City_669": 687,
      "City_670": 688,
      "City_671": 689,
      "City_672": 690,
      "City_673": 691,
      "City_674": 692,
      "City_675": 693,
      "City_676": 694,
      "City_677": 695,
      "City_678": 696,
      "City_679": 697,
      "City_680": 698,
      "City_681": 699,
      "City_682": 700,
      "City_683": 701,
      "City_684": 702,
      "City_685": 703,
      "City_686": 704,
      "City_687": 705,
      "City_688": 706,
      "City_689": 707,
      "City_690": 708,
      "City_691": 709,
      "City_692": 710,
      "City_693": 711,
      "City_694": 712,
      "City_695": 713,
      "City_696": 714,
      "City_697": 715,
      "City_698": 716,
      "City_699": 717,
      "City_700": 718,
      "City_701": 719,
      "City_702": 720,
      "City_703": 721,
      "City_704": 722,
      "City_705": 723,
      "City_706": 724,
      "City_707": 725,
      "City_708": 726,
      "City_709": 727,
      "City_710": 728,
      "City_711": 729,
      "City_712": 730,
      "City_713": 731,
      "City_714": 732,
      "City_715": 733,
      "City_716": 734,
      "City_717": 735,
      "City_718": 736,
      "City_719": 737,
      "City_720": 738,
      "City_721": 739,
      "City_722": 740,
      "City_723": 741,
      "City_724": 742,
      "City_725": 743,
      "City_726": 744,
      "City_727": 745,
      "City_728": 746,
      "City_729": 747,
      "City_730": 748,
      "City_731": 749,
      "City_732": 750,
      "City_733": 751,
      "City_734": 752,
      "City_735": 753,
      "City_736": 754,
      "City_737": 755,
      "City_738": 756,
      "City_739": 757,
      "City_740": 758,
      "City_741": 759,
      "City_742": 760,
      "City_743": 761,
      "City_744": 762,
      "City_745": 763,
      "City_746": 764,
      "City_747": 765,
      "City_748": 766,
      "City_749": 767,
      "City_750": 768,
      "City_751": 769,
      "City_752": 770,
      "City_753": 771,
      "City_754": 772,
      "City_755": 773,
      "City_756": 774,
      "City_757": 775,
      "City_758": 776,
      "City_759": 777,
      "City_760": 778,
      "City_761": 779,
      "City_762": 780,
      "City_763": 781,
      "City_764": 782,
      "City_765": 783,
      "City_766": 784,
      "City_767": 785,
      "City_768": 786,
      "City_769": 787,
      "City_770": 788,
      "City_771": 789,
      "City_772": 790,
      "City_773": 791,
      "City_774": 792,
      "City_775": 793,
      "City_776": 794,
      "City_777": 795,
      "City_778": 796,
      "City_779": 797,
      "City_780": 798,
      "City_781": 799,
      "City_782": 800,
      "City_783": 801,
      "City_784": 802,
      "City_785": 803,
      "City_786": 804,
      "City_787": 805,
      "City_788": 806,
      "City_789": 807,
      "City_790": 808,
      "City_791": 809,
      "City_792": 810,
      "City_793": 811,
      "City_794": 812,
      "City_795": 813,
      "City_796": 814,
      "City_797": 815,
      "City_798": 816,
      "City_799": 817,
      "City_800": 818,
      "City_801": 819,
      "City_802": 820,
      "City_803": 821,
      "City_804": 822,
      "City_805": 823,
      "City_806": 824,
      "City_807": 825,
      "City_808": 826,
      "City_809": 827,
      "City_810": 828,
      "City_811": 829,
      "City_812": 830,
      "City_813": 831,
      "City_814": 832,
      "City_815": 833,
      "City_816": 834,
      "City_817": 835,
      "City_818": 836,
      "State_1": 837,
      "State_2": 838,
      "State_3": 839,
      "State_4": 840,
      "State_5": 841,
      "State_6": 842,
      "State_7": 843,
      "State_8": 844,
      "State_9": 845,
      "State_10": 846,
      "State_11": 847,
      "State_12": 848,
      "State_13": 849,
      "State_14": 850,
      "State_15": 851,
      "State_16": 852,
      "State_17": 853,
      "State_18": 854,
      "State_19": 855,
      "State_20": 856,
      "State_21": 857,
      "State_22": 858,
      "State_23": 859,
      "State_24": 860,
      "State_25": 861,
      "State_26": 862,
      "State_27": 863,
      "State_28": 864,
      "State_29": 865,
      "State_30": 866,
      "State_31": 867,
      "State_32": 868,
      "State_33": 869,
      "State_34": 870,
      "State_35": 871,
      "State_36": 872,
      "State_37": 873,
      "State_38": 874,
      "State_39": 875,
      "State_40": 876,
      "State_41": 877,
      "State_42": 878,
      "State_43": 879,
      "State_44": 880,
      "State_45": 881,
      "State_46": 882,
      "State_47": 883,
      "canada": 884,
      "0": 885,
      "1": 886,
      "2": 887,
      "3": 888,
      "4": 889,
      "5": 890,
      "6": 891,
      "7": 892,
      "8": 893,
      "9": 894,
      "A": 895,
      "C": 896,
      "E": 897,
      "G": 898,
      "I": 899,
      "L": 900,
      "N": 901,
      "O": 902,
      "R": 903,
      "S": 904,
      "T": 905,
      "U": 906,
      "Y": 907,
      "[": 908,
      "]": 909,
      "_": 910,
      "a": 911,
      "c": 912,
      "d": 913,
      "e": 914,
      "g": 915,
      "i": 916,
      "n": 917,
      "t": 918,
      "y": 919,
      "Ġ": 920,
      "Ġ[": 921,
      "AG": 922,
      "AT": 923,
      "CI": 924,
      "CO": 925,
      "NT": 926,
      "RY": 927,
      "ST": 928,
      "TY": 929,
      "UNT": 930,
      "AGE": 931,
      "ATE": 932,
      "CITY": 933,
      "COUNT": 934,
      "STATE": 935,
      "COUNTRY": 936,
      "CL": 937,
      "Ci": 938,
      "ER": 939,
      "St": 940,
      "SER": 941,
      "USER": 942,
      "ad": 943,
      "an": 944,
      "at": 945,
      "can": 946,
      "ty": 947,
      "ĠCi": 948,
      "ĠSt": 949,
      "Ġcan": 950,
      "CLS": 951,
      "ada": 952,
      "ate": 953,
      "ĠCity": 954,
      "ĠState": 955,
      "Ġcanada": 956,
      "30": 957,
      "59": 958,
      "39": 959,
      "40": 960,
      "Ġ30": 961,
      "Ġ40": 962,
      "20": 963,
      "29": 964,
      "Ġ20": 965,
      "10": 966,
      "15": 967,
      "19": 968,
      "Ġ15": 969,
      "60": 970,
      "100": 971,
      "Ġ60": 972,
      "28": 973,
      "42": 974,
      "22": 975,
      "37": 976,
      "16": 977,
      "87": 978,
      "35": 979,
      "17": 980,
      "352": 981,
      "11": 982,
      "50": 983,
      "69": 984,
      "23": 985,
      "25": 986,
      "45": 987,
      "80": 988,
      "36": 989,
      "14": 990,
      "13": 991,
      "27": 992,
      "64": 993,
      "168": 994,
      "503": 995,
      "173": 996,
      "72": 997,
      "301": 998,
      "Ġ10": 999,
      "231": 1000,
      "62": 1001,
      "83": 1002,
      "108": 1003,
      "164": 1004,
      "276": 1005,
      "590": 1006,
      "54": 1007,
      "61": 1008,
      "34": 1009,
      "281": 1010,
      "409": 1011,
      "363": 1012,
      "222": 1013,
      "74": 1014,
      "183": 1015,
      "47": 1016,
      "232": 1017,
      "38": 1018,
      "372": 1019,
      "58": 1020,
      "151": 1021,
      "71": 1022,
      "295": 1023,
      "216": 1024,
      "273": 1025,
      "152": 1026,
      "220": 1027,
      "711": 1028,
      "319": 1029,
      "Ag": 1030,
      "ĠAg": 1031,
      "ĠAge": 1032,
      "199": 1033,
      "73": 1034,
      "300": 1035,
      "179": 1036,
      "390": 1037,
      "79": 1038,
      "68": 1039,
      "334": 1040,
      "636": 1041,
      "107": 1042,
      "461": 1043,
      "41": 1044,
      "285": 1045,
      "483": 1046,
      "Ġ5": 1047,
      "257": 1048,
      "92": 1049,
      "132": 1050,
      "242": 1051,
      "65": 1052,
      "33": 1053,
      "84": 1054,
      "470": 1055,
      "48": 1056,
      "141": 1057,
      "18": 1058,
      "437": 1059,
      "761": 1060,
      "260": 1061,
      "44": 1062,
      "12": 1063,
      "505": 1064,
      "365": 1065,
      "77": 1066,
      "331": 1067,
      "78": 1068,
      "341": 1069,
      "250": 1070,
      "186": 1071,
      "203": 1072,
      "208": 1073,
      "423": 1074,
      "582": 1075,
      "211": 1076,
      "81": 1077,
      "262": 1078,
      "156": 1079,
      "113": 1080,
      "85": 1081,
      "175": 1082,
      "410": 1083,
      "171": 1084,
      "123": 1085,
      "99": 1086,
      "215": 1087,
      "554": 1088,
      "288": 1089,
      "748": 1090,
      "213": 1091,
      "55": 1092,
      "197": 1093,
      "167": 1094,
      "52": 1095,
      "245": 1096,
      "502": 1097,
      "193": 1098,
      "254": 1099,
      "529": 1100,
      "Ġ1": 1101,
      "796": 1102,
      "90": 1103,
      "241": 1104,
      "76": 1105,
      "32": 1106,
      "289": 1107,
      "305": 1108,
      "26": 1109,
      "169": 1110,
      "201": 1111,
      "237": 1112,
      "662": 1113,
      "617": 1114,
      "70": 1115,
      "109": 1116,
      "580": 1117,
      "810": 1118,
      "114": 1119,
      "271": 1120,
      "443": 1121,
      "553": 1122,
      "522": 1123,
      "202": 1124,
      "296": 1125,
      "338": 1126,
      "49": 1127,
      "269": 1128,
      "235": 1129,
      "225": 1130,
      "176": 1131,
      "657": 1132,
      "180": 1133,
      "330": 1134,
      "574": 1135,
      "91": 1136,
      "346": 1137,
      "442": 1138,
      "239": 1139,
      "367": 1140,
      "146": 1141,
      "31": 1142,
      "219": 1143,
      "63": 1144,
      "434": 1145,
      "593": 1146,
      "207": 1147,
      "158": 1148,
      "195": 1149,
      "392": 1150,
      "504": 1151,
      "433": 1152,
      "56": 1153,
      "583": 1154,
      "306": 1155,
      "357": 1156,
      "718": 1157,
      "126": 1158,
      "259": 1159,
      "438": 1160,
      "680": 1161,
      "75": 1162,
      "172": 1163,
      "758": 1164,
      "223": 1165,
      "161": 1166,
      "248": 1167,
      "411": 1168,
      "688": 1169,
      "678": 1170,
      "427": 1171,
      "362": 1172,
      "21": 1173,
      "490": 1174,
      "765": 1175,
      "196": 1176,
      "786": 1177,
      "317": 1178,
      "439": 1179,
      "53": 1180,
      "66": 1181,
      "616": 1182,
      "190": 1183,
      "454": 1184,
      "449": 1185,
      "214": 1186,
      "51": 1187,
      "562": 1188,
      "570": 1189,
      "740": 1190,
      "808": 1191,
      "549": 1192,
      "653": 1193,
      "127": 1194,
      "542": 1195,
      "538": 1196,
      "642": 1197,
      "304": 1198,
      "394": 1199,
      "294": 1200,
      "379": 1201,
      "178": 1202,
      "776": 1203,
      "116": 1204,
      "329": 1205,
      "369": 1206,
      "611": 1207,
      "230": 1208,
      "668": 1209,
      "391": 1210,
      "104": 1211,
      "603": 1212,
      "253": 1213,
      "368": 1214,
      "124": 1215,
      "494": 1216,
      "265": 1217,
      "67": 1218,
      "750": 1219,
      "93": 1220,
      "609": 1221,
      "424": 1222,
      "426": 1223,
      "163": 1224,
      "500": 1225,
      "543": 1226,
      "388": 1227,
      "585": 1228,
      "136": 1229,
      "320": 1230,
      "573": 1231,
      "579": 1232,
      "640": 1233,
      "665": 1234,
      "303": 1235,
      "307": 1236,
      "595": 1237,
      "600": 1238,
      "236": 1239,
      "386": 1240,
      "130": 1241,
      "310": 1242,
      "415": 1243,
      "414": 1244,
      "499": 1245,
      "559": 1246,
      "550": 1247,
      "514": 1248,
      "575": 1249,
      "639": 1250,
      "764": 1251,
      "738": 1252,
      "752": 1253,
      "283": 1254,
      "382": 1255,
      "482": 1256,
      "185": 1257,
      "775": 1258,
      "140": 1259,
      "160": 1260,
      "210": 1261,
      "420": 1262,
      "474": 1263,
      "432": 1264,
      "572": 1265,
      "780": 1266,
      "714": 1267,
      "88": 1268,
      "298": 1269,
      "106": 1270,
      "221": 1271,
      "118": 1272,
      "691": 1273,
      "618": 1274,
      "344": 1275,
      "485": 1276,
      "182": 1277,
      "556": 1278,
      "706": 1279,
      "159": 1280,
      "229": 1281,
      "228": 1282,
      "244": 1283,
      "322": 1284,
      "46": 1285,
      "430": 1286,
      "492": 1287,
      "539": 1288,
      "515": 1289,
      "545": 1290,
      "650": 1291,
      "673": 1292,
      "783": 1293,
      "812": 1294,
      "94": 1295,
      "96": 1296,
      "405": 1297,
      "407": 1298,
      "690": 1299,
      "696": 1300,
      "148": 1301,
      "149": 1302,
      "275": 1303,
      "278": 1304,
      "384": 1305,
      "385": 1306,
      "790": 1307,
      "652": 1308,
      "315": 1309,
      "328": 1310,
      "450": 1311,
      "480": 1312,
      "468": 1313,
      "558": 1314,
      "532": 1315,
      "634": 1316,
      "734": 1317,
      "97": 1318,
      "101": 1319,
      "192": 1320,
      "370": 1321,
      "453": 1322,
      "143": 1323,
      "648": 1324,
      "348": 1325,
      "477": 1326,
      "381": 1327,
      "333": 1328,
      "263": 1329,
      "120": 1330,
      "187": 1331,
      "24": 1332,
      "359": 1333,
      "311": 1334,
      "327": 1335,
      "565": 1336,
      "531": 1337,
      "687": 1338,
      "676": 1339,
      "396": 1340,
      "206": 1341,
      "209": 1342,
      "105": 1343,
      "155": 1344,
      "286": 1345,
      "226": 1346,
      "170": 1347,
      "693": 1348,
      "695": 1349,
      "803": 1350,
      "270": 1351,
      "279": 1352,
      "721": 1353,
      "347": 1354,
      "389": 1355,
      "781": 1356,
      "551": 1357,
      "496": 1358,
      "667": 1359,
      "129": 1360,
      "110": 1361,
      "128": 1362,
      "339": 1363,
      "383": 1364,
      "312": 1365,
      "459": 1366,
      "416": 1367,
      "487": 1368,
      "431": 1369,
      "466": 1370,
      "523": 1371,
      "568": 1372,
      "533": 1373,
      "615": 1374,
      "672": 1375,
      "719": 1376,
      "745": 1377,
      "818": 1378,
      "302": 1379,
      "591": 1380,
      "402": 1381,
      "608": 1382,
      "165": 1383,
      "350": 1384,
      "174": 1385,
      "698": 1386,
      "807": 1387,
      "147": 1388,
      "274": 1389,
      "644": 1390,
      "621": 1391,
      "547": 1392,
      "612": 1393,
      "743": 1394,
      "478": 1395,
      "479": 1396,
      "792": 1397,
      "656": 1398,
      "332": 1399,
      "488": 1400,
      "489": 1401,
      "121": 1402,
      "770": 1403,
      "555": 1404,
      "524": 1405,
      "266": 1406,
      "701": 1407,
      "705": 1408,
      "708": 1409,
      "491": 1410,
      "498": 1411,
      "567": 1412,
      "757": 1413,
      "117": 1414,
      "264": 1415,
      "261": 1416,
      "218": 1417,
      "249": 1418,
      "316": 1419,
      "335": 1420,
      "43": 1421,
      "417": 1422,
      "469": 1423,
      "413": 1424,
      "447": 1425,
      "441": 1426,
      "467": 1427,
      "57": 1428,
      "530": 1429,
      "517": 1430,
      "511": 1431,
      "569": 1432,
      "525": 1433,
      "534": 1434,
      "512": 1435,
      "614": 1436,
      "664": 1437,
      "661": 1438,
      "674": 1439,
      "671": 1440,
      "720": 1441,
      "760": 1442,
      "722": 1443,
      "735": 1444,
      "717": 1445,
      "736": 1446,
      "772": 1447,
      "762": 1448,
      "815": 1449,
      "597": 1450,
      "393": 1451,
      "403": 1452,
      "406": 1453,
      "204": 1454,
      "293": 1455,
      "102": 1456,
      "103": 1457,
      "153": 1458,
      "154": 1459,
      "157": 1460,
      "194": 1461,
      "198": 1462,
      "605": 1463,
      "607": 1464,
      "280": 1465,
      "282": 1466,
      "287": 1467,
      "373": 1468,
      "376": 1469,
      "378": 1470,
      "112": 1471,
      "509": 1472,
      "697": 1473,
      "699": 1474,
      "252": 1475,
      "255": 1476,
      "258": 1477,
      "800": 1478,
      "801": 1479,
      "806": 1480,
      "361": 1481,
      "144": 1482,
      "134": 1483,
      "277": 1484,
      "646": 1485,
      "649": 1486,
      "724": 1487,
      "541": 1488,
      "349": 1489,
      "741": 1490,
      "732": 1491,
      "793": 1492,
      "797": 1493,
      "798": 1494,
      "681": 1495,
      "685": 1496,
      "686": 1497,
      "689": 1498,
      "651": 1499,
      "181": 1500,
      "446": 1501,
      "521": 1502,
      "321": 1503,
      "324": 1504,
      "700": 1505,
      "702": 1506,
      "753": 1507,
      "139": 1508,
      "115": 1509,
      "119": 1510,
      "142": 1511,
      "122": 1512,
      "137": 1513,
      "135": 1514,
      "125": 1515,
      "145": 1516,
      "184": 1517,
      "240": 1518,
      "217": 1519,
      "247": 1520,
      "268": 1521,
      "212": 1522,
      "246": 1523,
      "340": 1524,
      "360": 1525,
      "342": 1526,
      "337": 1527,
      "387": 1528,
      "323": 1529,
      "325": 1530,
      "345": 1531,
      "380": 1532,
      "336": 1533,
      "314": 1534,
      "313": 1535,
      "318": 1536,
      "440": 1537,
      "429": 1538,
      "419": 1539,
      "460": 1540,
      "428": 1541,
      "435": 1542,
      "445": 1543,
      "436": 1544,
      "464": 1545,
      "472": 1546,
      "462": 1547,
      "465": 1548,
      "484": 1549,
      "448": 1550,
      "463": 1551,
      "540": 1552,
      "520": 1553,
      "510": 1554,
      "519": 1555,
      "560": 1556,
      "528": 1557,
      "537": 1558,
      "516": 1559,
      "587": 1560,
      "535": 1561,
      "536": 1562,
      "513": 1563,
      "527": 1564,
      "564": 1565,
      "561": 1566,
      "571": 1567,
      "518": 1568,
      "577": 1569,
      "578": 1570,
      "576": 1571,
      "563": 1572,
      "630": 1573,
      "659": 1574,
      "620": 1575,
      "629": 1576,
      "610": 1577,
      "619": 1578,
      "660": 1579,
      "628": 1580,
      "622": 1581,
      "637": 1582,
      "635": 1583,
      "669": 1584,
      "623": 1585,
      "625": 1586,
      "645": 1587,
      "613": 1588,
      "627": 1589,
      "683": 1590,
      "654": 1591,
      "638": 1592,
      "658": 1593,
      "679": 1594,
      "633": 1595,
      "677": 1596,
      "632": 1597,
      "670": 1598,
      "631": 1599,
      "663": 1600,
      "675": 1601,
      "730": 1602,
      "759": 1603,
      "739": 1604,
      "729": 1605,
      "710": 1606,
      "715": 1607,
      "728": 1608,
      "742": 1609,
      "737": 1610,
      "716": 1611,
      "787": 1612,
      "769": 1613,
      "723": 1614,
      "725": 1615,
      "713": 1616,
      "727": 1617,
      "754": 1618,
      "774": 1619,
      "771": 1620,
      "773": 1621,
      "779": 1622,
      "768": 1623,
      "784": 1624,
      "755": 1625,
      "756": 1626,
      "82": 1627,
      "86": 1628,
      "89": 1629,
      "816": 1630,
      "817": 1631,
      "811": 1632,
      "814": 1633,
      "813": 1634,
      "95": 1635,
      "98": 1636,
      "308": 1637,
      "309": 1638,
      "592": 1639,
      "594": 1640,
      "596": 1641,
      "598": 1642,
      "599": 1643,
      "395": 1644,
      "397": 1645,
      "398": 1646,
      "399": 1647,
      "400": 1648,
      "401": 1649,
      "404": 1650,
      "408": 1651,
      "200": 1652,
      "205": 1653,
      "290": 1654,
      "291": 1655,
      "292": 1656,
      "297": 1657,
      "299": 1658,
      "150": 1659,
      "191": 1660,
      "601": 1661,
      "602": 1662,
      "604": 1663,
      "606": 1664,
      "284": 1665,
      "421": 1666,
      "422": 1667,
      "425": 1668,
      "224": 1669,
      "227": 1670,
      "371": 1671,
      "374": 1672,
      "375": 1673,
      "377": 1674,
      "162": 1675,
      "166": 1676,
      "351": 1677,
      "353": 1678,
      "354": 1679,
      "355": 1680,
      "356": 1681,
      "358": 1682,
      "177": 1683,
      "111": 1684,
      "501": 1685,
      "506": 1686,
      "507": 1687,
      "508": 1688,
      "692": 1689,
      "694": 1690,
      "233": 1691,
      "234": 1692,
      "238": 1693,
      "251": 1694,
      "256": 1695,
      "451": 1696,
      "452": 1697,
      "455": 1698,
      "456": 1699,
      "457": 1700,
      "458": 1701,
      "802": 1702,
      "804": 1703,
      "805": 1704,
      "809": 1705,
      "364": 1706,
      "366": 1707,
      "131": 1708,
      "133": 1709,
      "138": 1710,
      "272": 1711,
      "641": 1712,
      "643": 1713,
      "647": 1714,
      "726": 1715,
      "624": 1716,
      "626": 1717,
      "544": 1718,
      "546": 1719,
      "548": 1720,
      "343": 1721,
      "744": 1722,
      "746": 1723,
      "747": 1724,
      "749": 1725,
      "471": 1726,
      "473": 1727,
      "475": 1728,
      "476": 1729,
      "581": 1730,
      "584": 1731,
      "586": 1732,
      "588": 1733,
      "589": 1734,
      "712": 1735,
      "731": 1736,
      "733": 1737,
      "791": 1738,
      "794": 1739,
      "795": 1740,
      "799": 1741,
      "682": 1742,
      "684": 1743,
      "412": 1744,
      "418": 1745,
      "655": 1746,
      "481": 1747,
      "486": 1748,
      "188": 1749,
      "189": 1750,
      "444": 1751,
      "777": 1752,
      "778": 1753,
      "782": 1754,
      "785": 1755,
      "788": 1756,
      "789": 1757,
      "552": 1758,
      "557": 1759,
      "526": 1760,
      "763": 1761,
      "766": 1762,
      "767": 1763,
      "326": 1764,
      "267": 1765,
      "703": 1766,
      "704": 1767,
      "707": 1768,
      "709": 1769,
      "493": 1770,
      "495": 1771,
      "497": 1772,
      "566": 1773,
      "751": 1774,
      "666": 1775,
      "243": 1776
    },
    "merges": [
      "Ġ [",
      "A G",
      "A T",
      "C I",
      "C O",
      "N T",
      "R Y",
      "S T",
      "T Y",
      "U NT",
      "AG E",
      "AT E",
      "CI TY",
      "CO UNT",
      "ST ATE",
      "COUNT RY",
      "C L",
      "C i",
      "E R",
      "S t",
      "S ER",
      "U SER",
      "a d",
      "a n",
      "a t",
      "c an",
      "t y",
      "Ġ Ci",
      "Ġ St",
      "Ġ can",
      "CL S",
      "ad a",
      "at e",
      "ĠCi ty",
      "ĠSt ate",
      "Ġcan ada",
      "3 0",
      "5 9",
      "3 9",
      "4 0",
      "Ġ 30",
      "Ġ 40",
      "2 0",
      "2 9",
      "Ġ 20",
      "1 0",
      "1 5",
      "1 9",
      "Ġ 15",
      "6 0",
      "10 0",
      "Ġ 60",
      "2 8",
      "4 2",
      "2 2",
      "3 7",
      "1 6",
      "8 7",
      "3 5",
      "1 7",
      "35 2",
      "1 1",
      "5 0",
      "6 9",
      "2 3",
      "2 5",
      "4 5",
      "8 0",
      "3 6",
      "1 4",
      "1 3",
      "2 7",
      "6 4",
      "16 8",
      "50 3",
      "17 3",
      "7 2",
      "30 1",
      "Ġ 10",
      "23 1",
      "6 2",
      "8 3",
      "10 8",
      "16 4",
      "27 6",
      "59 0",
      "5 4",
      "6 1",
      "3 4",
      "28 1",
      "40 9",
      "36 3",
      "22 2",
      "7 4",
      "1 83",
      "4 7",
      "23 2",
      "3 8",
      "37 2",
      "5 8",
      "15 1",
      "7 1",
      "29 5",
      "2 16",
      "27 3",
      "15 2",
      "2 20",
      "7 11",
      "3 19",
      "A g",
      "Ġ Ag",
      "ĠAg e",
      "19 9",
      "7 3",
      "30 0",
      "17 9",
      "39 0",
      "7 9",
      "6 8",
      "3 34",
      "6 36",
      "10 7",
      "4 61",
      "4 1",
      "28 5",
      "4 83",
      "Ġ 5",
      "25 7",
      "9 2",
      "13 2",
      "2 42",
[...]
